#version: 0.2
n g
k u
e l
a n
e n
k h
s i
l a
t i
e m
t s
w a
l e
l o
b a
i n
p h
a k
d z
i s
o n
t f
y a
l u
ng a
ts i</w>
l a</w>
u m
l i
s e
w a</w>
el a</w>
e k
t a
u n
b u
n a
b e</w>
e ku
i m
h a
em a
ak a
d v
el i
ng i
w e
en t
s a
l e</w>
en i</w>
b e
ti n
w u
b a</w>
k a
s h
m a
el e</w>
y e</w>
h la
N g
kh e</w>
t si
i k
e t
kh o
kh a
kh u
w e</w>
b an
ku tsi</w>
b o
e ,</w>
t i</w>
i ,</w>
l o</w>
l u</w>
n e
o m
an a</w>
y e
tf u</w>
k w
b h
ng u
a m
ng e
s i</w>
k wa
b on
K u
tf u
o be</w>
ng a</w>
b i
e .</w>
y a</w>
k an
b o</w>
an d
t e</w>
c a
is a</w>
l el
dz e</w>
f u
an e</w>
n j
an i</w>
y i
u k
ku lu
l i</w>
in i</w>
s e</w>
on khe</w>
le si
lo ku
dz a
k o</w>
la ba
t h
t e
l en
ti m
kh on
v e</w>
o .</w>
S im
n i
o ,</w>
tsi :</w>
t a</w>
lo m
t j
a ,</w>
khu lu
el o</w>
w o</w>
ng en
i .</w>
f un
e s
l w
Sim aka
s a</w>
le ti
dz a</w>
tf o</w>
r a
t o</w>
ts a
kulu n
m a</w>
ya wu
l eli
se b
ent a</w>
S i
a .</w>
l an
en ti
b ek
N kulun
e si
h lo
ts a</w>
k e</w>
ts e
f an
ak o</w>
ent i</w>
l ela</w>
dv o
h lu
ha m
y o</w>
ng eku
is h
dv wa</w>
el i</w>
B a
k o
ph a</w>
ng obe</w>
kan ye</w>
. .
b ha
ph i
M a
kha tsi</w>
L o
tf o
c o
w en
si n
ph a
ng em
k we
e r
ku lu</w>
g a
c h
kh o</w>
N a
n em
ng ek
c in
en d
v i
b i</w>
nj e
ta wu
h o
khon a</w>
l is
n eku
y in
ak a</w>
Nkulun kulu</w>
el u
khu lu</w>
s o</w>
m i</w>
kho si</w>
L i
Simaka dze</w>
i le</w>
t u
ban tfu</w>
ng an
e ti
L a
un tfu</w>
le tin
la m
r i
ik a</w>
k a</w>
Ng i
h le</w>
l wa</w>
w eni</w>
fu tsi</w>
z e</w>
l em
s ha
ng ema
ku m
n om
v a</w>
L e
- ke</w>
j a
um a</w>
in e</w>
ph o</w>
. ”</w>
I n
i ng
c on
tsi n
y eku
t o
ek a</w>
c i
a ng
la ,</w>
nga be</w>
W a
I s
ra y
.. .</w>
l wa
e b
is e</w>
u la</w>
lo n
ak e</w>
and la</w>
e a
le ,</w>
la nga</w>
im i
ng um
dz i</w>
U m
el wa</w>
s em
Is ray
y en
kh i
s uk
fan ele</w>
J es
- A
d la</w>
Simaka dz
w an
n ema
si khatsi</w>
wa tsi:</w>
ko dvwa</w>
Ng a
h la</w>
s en
y ini</w>
la ma
se ku
- Isray
S a
le .</w>
d a
is o</w>
kh e
an an
k u</w>
lo ko</w>
. "</w>
ts an
bon a</w>
in y
d lela</w>
K h
ba m
la .</w>
c e
ca la</w>
sh o</w>
em b
dvo dz
g u
n obe</w>
M o
dv o</w>
f a
k e
ak o
sh i
d o
la pho</w>
m i
le k
l eni</w>
u ti
dz i
c a</w>
kh e,</w>
ku be</w>
is i</w>
u ,</w>
et h
nga ph
a r
ng eli
n y
kh e.</w>
e v
nom e</w>
K o
s o
g o
le ku
E ma
kw em
c wa
ph i</w>
ph e
ngek e</w>
ph um
l in
khulu ma</w>
N i
y em
ent e</w>
s u
ch u
Ng u
bh u
bi li</w>
sh a</w>
t em
ng o</w>
tsin i</w>
s wa</w>
w ane</w>
ts e</w>
J o
b en
seb enti</w>
r o
is wa</w>
ph in
dvo dza</w>
Jes u</w>
v u
T i
a be
en dv
h lan
D a
u ya
hla la</w>
r is
la ban
et a</w>
lo lu
v um
ku n
v i</w>
si m
y el
d e</w>
la be
on a</w>
tse tfo</w>
la la</w>
w em
lu ng
g e
kho m
bo ,</w>
bek a</w>
2 0
ng c
ph aka
lan dz
Ko dvwa</w>
dza wo</w>
t eku
an i
ng et
ham ba</w>
lel o</w>
P h
wa m
el a
f i
ph endv
ku ze</w>
f ik
si ,</w>
b eku
ph o
y is
p a
g i
w eku
u lu
y o
d e
t onkhe</w>
dvodz ana</w>
be se</w>
ya ,</w>
N e
se k
ku te</w>
hla ngan
un ye</w>
ng o
seb enti
j e
g cin
k i
L u
ne ti
nj e</w>
si ve</w>
B ha
uti fu
n ak
um untfu</w>
ph u
el we</w>
ph el
v e
on i</w>
ng ani</w>
ka khulu</w>
u lu</w>
d i
bh i
do lo
kha tsini</w>
bon khe</w>
w ana</w>
Nkulun kulu
a nga
kw eku
v a
b el
uk a</w>
f a</w>
and le</w>
e tin
a ku
lo ,</w>
kh a</w>
L en
o r
n en
Simakadz e,</w>
J u
n ya
kh an
lo .</w>
fun a</w>
nga m
z a</w>
in i
a ba
u si
la bo</w>
im i</w>
t en
f ika</w>
phin dze</w>
h li
lw ane</w>
eli ,</w>
w enta</w>
B ea
kum ele</w>
nj a
c ha
ng aka
am a</w>
la ka
tf um
bh a</w>
ng u</w>
ph ela</w>
e h
ti ,</w>
a si
K wa
kho ,</w>
w el
ya m
lo wo</w>
ne si
Da vi
y ek
E m
ku fanele</w>
im a
ish o</w>
la nga
k onkhe</w>
an si</w>
c e</w>
un a</w>
G i
bo .</w>
z i</w>
ban i</w>
u nga
r e
c u
-Isray eli</w>
ja bu
is eb
a ti
tsa tsa</w>
si te</w>
b eni</w>
J er
tf wana</w>
ngi z
w ele</w>
le s
- 1
nge ti
im u</w>
lo ku</w>
end e</w>
d a</w>
wa ti</w>
wa ,</w>
ne tin
z u
kw en
hla ba</w>
el ela</w>
s on
kh un
an a
le ngi
bu si
ka hle</w>
S h
u sa
we ,</w>
tf om
l isa</w>
fun dz
l ema
tfu ,</w>
um sa</w>
nge si
c an
we .</w>
d i</w>
J e
khom b
em an
B o
y ela</w>
s ema
la pha</w>
z a
A f
lw eni</w>
t s</w>
Ng ako</w>
v ik
nje ngobe</w>
ts em
hla ba
na ku
em i
wa .</w>
ti .</w>
v el
o n</w>
y i</w>
in d
. .</w>
un y
- E
z i
n an
n eli
T h
bi li
tfo la</w>
en e</w>
S o
n ik
um bu
hli ti
em khatsini</w>
l ele</w>
ek e</w>
iny aka</w>
f aka</w>
L om
dza ba</w>
B e
kho .</w>
ng el
c ane</w>
wen a</w>
ph uma</w>
tf wa
si .</w>
s aka
nga loku
ang e</w>
bu k
u .</w>
ngiz imu</w>
fik e</w>
ak o.</w>
C h
ye .</w>
y aka
T a
h le
ts el
tfu .</w>
n aka
B u
ti ve</w>
S e
kw ent
emb ik
B an
se si
lo ve</w>
tfu l</w>
se wu
ya khe</w>
seb enta</w>
T in
nom a</w>
i si
cin is
ka khulu
bu la
ya ku
l we
nge sikhatsi</w>
ng is
n o
in khosi</w>
ne ba
le ya
vum el
ako -ke</w>
v ele</w>
tin tfo</w>
kw enta</w>
phendv ula</w>
le tim
l we</w>
y et
ngen ca</w>
ng e</w>
dv u
ka ti</w>
kha ya</w>
bi to</w>
iseb enti</w>
ngeku tsi</w>
fun dza</w>
m u
khulu m
em p
d la
tin i</w>
um u
z ange</w>
be a
lo wa
w un
y enti</w>
ca ba
ku nga
hlo bo</w>
y onkhe</w>
en a</w>
el eni</w>
t ek
0 0
g ama</w>
phi la</w>
fa ti</w>
k o,</w>
dv um
ya se
c um
C a
u yawu
p o
s el
ba be</w>
ta m
ngaph andle</w>
Ni ngizimu</w>
te wu
lam an
y e,</w>
lem i
u va</w>
tf wa</w>
dv una</w>
wa se</w>
sh i</w>
en i,</w>
w ema
I m
ba ,</w>
ku suk
le so</w>
a sa
li ve</w>
L esi
ts elo</w>
y ak
tfu l
wa tsi</w>
nga tsi</w>
w eli
ph ris
in e
j u
anan anan
c en
ny aka</w>
a wu
se tj
b i,</w>
Jer usa
ya .</w>
utifu l
y an
ta ti
i l
ng ak
t ak
ngema -
k on
in i,</w>
b em
dolo bha</w>
a n</w>
' s</w>
Ng ako-ke</w>
t on
yen a</w>
el e
nge tin
y ema
B h
ro f
g h
bon aka
ke pha</w>
v u</w>
u tsi:</w>
na se
20 1
t ema
le ka</w>
tsi ,</w>
Gi bhi
phi lo</w>
ku si
dza weni</w>
lu nga</w>
ya kho</w>
Gibhi th
N khosi</w>
ng isho</w>
e bu
ngen a</w>
ku sho</w>
m ine</w>
ka m
setj enti
wa khe</w>
kan tsi</w>
hlo ko</w>
t ela</w>
r i</w>
ya lo</w>
s ela</w>
Ng obe</w>
se ba
con dz
b is
eli .</w>
w u</w>
ku ba
m an
ba nga
s :</w>
in g</w>
bu ta</w>
ba .</w>
i nga
en i.</w>
ma ,</w>
c ela</w>
om e</w>
k o.</w>
ts ela</w>
fun dzi</w>
ph e</w>
khomb isa</w>
em a</w>
b ela</w>
tse tf
1 9
Simakadz e.</w>
in a
tsa tfu</w>
bh o
we si
kw ema
w on
le yo</w>
et e</w>
lon a</w>
ulu m
li le</w>
tse tfo
t el
fan ana</w>
ng ana</w>
Kh ris
hlu k
y on
y eli
landz el
. ’</w>
hliti yo</w>
bu so</w>
sebenti sa</w>
ba tsi:</w>
sh e
nem i
ye si
ik o</w>
w o.</w>
y o.</w>
ak o,</w>
N o
U nga
om a</w>
w ent
ya mi</w>
ev eni</w>
ngi le</w>
la h
le ng
l ini</w>
lung elo</w>
h ha
am i</w>
f o
tj ela</w>
t wa</w>
um a
ph rof
i c
le sa
? ”</w>
c elo</w>
lom unye</w>
sin i</w>
ka ,</w>
Davi de</w>
si sek
h h
u tawu
Lo ku</w>
laban ye</w>
j e</w>
tsi .</w>
na m
ku ya</w>
g c
gcin a</w>
la se
bo m
eth i</w>
Na ngabe</w>
utifu l</w>
M e
li ,</w>
U ma</w>
d lu
enti wa</w>
nja lo</w>
a yi
a se
sh u
Nkulunkulu ,</w>
t u</w>
a bu
Je ho
-Isray eli,</w>
dz e
neku tsi</w>
lel in
chu beka</w>
tu ku
z o</w>
tsan dza</w>
r ika</w>
is we</w>
i ?</w>
g wa
um i</w>
be ,</w>
kw eli
u tsi</w>
ngc wel
wa khuluma</w>
ta ,</w>
sin dz
a be</w>
si kha
letin ye</w>
lo nga
na ngabe</w>
K e
y o,</w>
ngi ya
and leni</w>
ph ansi</w>
f e
uk ela</w>
in ik
w onkhe</w>
ya nga</w>
ts am
nget ulu</w>
lw imi</w>
tf un
embik wa
nak e
n ye</w>
si we</w>
el el
ek i
th a</w>
sh o
em andla</w>
cwa dzi</w>
K un
n d
t an
ka .</w>
ng elu
im a</w>
n ine</w>
tim ba</w>
suk u</w>
ku ye</w>
ba lu
L es
s an
cen ye</w>
Ju da</w>
on a
ga ba</w>
ev en
we b
Sa wu
kan i
si ta</w>
M an
kho si,</w>
tf wan
wa ba
v e,</w>
ta .</w>
landz ela</w>
in i.</w>
f ana</w>
a li
w um
na ye</w>
bu ka</w>
ma nga
j ani</w>
phendv u
wa se
ba yawu
Y e
sa m
nj ani</w>
Ngu ye
R e
lo bu
c ek
y ise</w>
n et
f o</w>
phris ti</w>
th i</w>
a g
suk a</w>
o ya</w>
ba se
Af rika</w>
le nga
kusuk ela</w>
ku ba</w>
y im
r a</w>
hla kani
w o
v ela</w>
f aka
d li
shi wo</w>
an i,</w>
bek a
L eli
bon e</w>
ho li</w>
W eb
wa mi</w>
tfo laka
Mo si</w>
r u
in a</w>
tfu tfu
ng eni</w>
ba ti
ngen dlela</w>
v o
khon a.</w>
ik ela</w>
ban tfwana</w>
N je
t ha
wa ti
lom u
ek ile</w>
ph an
ng ako</w>
emb u</w>
W ena</w>
h lel
ba ya
v e.</w>
y enti
s onkhe</w>
l ish
ku len
kho lwa</w>
ulum ende</w>
an ti</w>
i -
e khatsi</w>
t .</w>
Ba be</w>
? "</w>
lek ile</w>
v un
ph am
lam u
ku ti
el ele</w>
nga ba</w>
kha la</w>
tj e</w>
on i,</w>
na bo</w>
ba khe</w>
a ngi
seb en
r an
w o,</w>
la si
hlo ni
el a,</w>
in dlela</w>
t o.</w>
setjenti swa</w>
hla hla</w>
sisek elo</w>
tsi te</w>
ts emb
t aka
ku dla</w>
el e.</w>
S ha
lw an
ph ak
ne bu
kwa ku
hlu ph
yawu ba</w>
tfum ela</w>
s t</w>
em e</w>
dz ing
si to</w>
wa kho</w>
i ya
Ku te</w>
en i
e s</w>
li .</w>
pha hla</w>
n a</w>
C ha
K a
Ban tfu</w>
bi .</w>
cek u</w>
Ne w</w>
u ta
s andla</w>
cinis ek
m o
j a</w>
L em
nje nga
h lelo</w>
v aka
li vi</w>
tfo le</w>
ku bo
f ak
bi ta</w>
tin g</w>
g e</w>
A b
tf we</w>
ng co
c uk
s eli
lu la</w>
y isa</w>
sa ba</w>
j i
ham be</w>
e :</w>
bhu bh
hla m
si nga
v ak
ku lom
khi pha</w>
ye wu
j o
tuku lwane</w>
ta khe</w>
nik elo</w>
g co
c embu</w>
lon g</w>
ku phela</w>
and a
se ti
le be
con o</w>
b um
ku sa
ng im
n ek
le ko</w>
in ing
sa khe</w>
F i
Af ri
n e</w>
kwa ba</w>
bek e</w>
g cwa
la ba</w>
hlangan o</w>
dza la</w>
a l
n i</w>
ma .</w>
el e,</w>
g ci
n tfwana</w>
ku leli
d lel
ta bo</w>
kho kh
Ke pha</w>
kh umbu
em hla
em eh
P ha
ng i</w>
P a
el o
Jerusa lema
) .</w>
nga .</w>
is a
Ch a</w>
u be</w>
len i
B ek
tfu ku
ng ent
v eni</w>
tsan dvo</w>
pha si</w>
ba be
ku na
ema langa</w>
ba bu
kwe si
dz ela</w>
ne tim
e r</w>
ba ka
u ngi
en dzaweni</w>
n elu
is ela</w>
dvodz aka
b un
20 0
c om
Wa tsi</w>
hlu kan
si swa</w>
nga ,</w>
et i</w>
Ju d
phi we</w>
si sa</w>
l ani</w>
ti on</w>
am u
khi ci
k i</w>
lo we
d o</w>
i n</w>
te r
k em
um sebenti</w>
lo ngu
d lu</w>
bu tfo</w>
ng in
caba nga</w>
Nkulunkulu .</w>
la ko</w>
bea utiful
H a
an d</w>
lo na
ku ma
to lo</w>
ngem uva</w>
kweku tsi</w>
tsan dz
m e
K ha
a ngeke</w>
le se
go li
A r
T im
pha tsa</w>
enti we</w>
a khe</w>
k im
ta li</w>
R a
ku li
d leni</w>
S u
Kwa tsi</w>
th emp
m en
ngc wele</w>
on g</w>
ngo ba</w>
la ph
g om
G a
i le,</w>
M tsetfo
u t
li langa</w>
le tsa</w>
ik et
m in
lel wa</w>
lel i</w>
khulu ,</w>
zu lw
k e,</w>
ku ya
ima li</w>
f e</w>
wen u</w>
ngaph ansi</w>
sh wa</w>
ku tawu
m ake</w>
th e</w>
ni nga
le t
ema dvodza</w>
u ngu
tj a</w>
y eni</w>
m e</w>
Ngi ya
Y ini</w>
in dzawo</w>
end lini</w>
vumel wane</w>
s .</w>
r i,</w>
ngi yawu
h le.</w>
el a.</w>
be ba
N ak
we ti
vi de
r e</w>
el ine</w>
bam ba</w>
v am
b u</w>
lon khe</w>
khon ta</w>
bon o</w>
M i
h ulumende</w>
bu yis
Bea utiful</w>
< li
le te
kakhulu .</w>
cha z
<li >
ku bo</w>
Nguye n</w>
khu la</w>
kh um
ma li</w>
u sa</w>
q u
ya tsi:</w>
ngu -
hla le</w>
S om
ku lesi
dvodzaka ti</w>
b in
o f</w>
ik eta</w>
phaka m
nga yo</w>
g a</w>
y ele</w>
tfolaka la</w>
loku shiwo</w>
Y a
wa la</w>
kwa ti</w>
h u
dza ,</w>
M ine</w>
un even
c h</w>
b eli
In khosi</w>
-Isray eli.</w>
laba be
ba ba
lw eku
ek ela</w>
Um untfu</w>
. [
lis e</w>
et ulu</w>
el ani</w>
dz e.</w>
d e,</w>
1 0
ik e</w>
ngen e</w>
nge bu
t ana</w>
nje ngem
r es
im inyaka</w>
g am
se ngi
bha la</w>
ya wo</w>
ta ku
hla tj
b ele</w>
lis o</w>
wa ba</w>
te si
ja lo</w>
a s
tfutfu k
Len a</w>
Khris tu</w>
< /
sa kho</w>
w ente</w>
dzi ngek
H e
yel ana</w>
tse ng
nga ti</w>
ta se
ngek we
wa ko</w>
ku ye
tf o,</w>
li m
kwe ti
khulu .</w>
f u</w>
dolo bh
li bito</w>
Jo h
o u
la khe</w>
is e
nga lo
y ane</w>
ham bis
Web site</w>
V i
L in
si kati</w>
ik i
hla sela</w>
bili .</w>
i le.</w>
p u
en a
bu sa</w>
. '</w>
th anda
ta kho</w>
h i
K an
a tsi:</w>
Simakadz e
F ar
na laba
dzi nga</w>
hla ngana</w>
s ele</w>
h le,</w>
yam i,</w>
le tati
sim o</w>
hlan u</w>
dza .</w>
I mi
phum ela</w>
l ane</w>
ku le
khon a,</w>
“ A
n ani</w>
Ngu bani</w>
ye ti
si te
sha ya</w>
na lo
lom o</w>
dz ima
ch i
tf o.</w>
si ya
s t
gom o</w>
eman ti</w>
M ake</w>
L is
m un
lem a</w>
ku la
kwa khe</w>
phaka tsi</w>
f iso</w>
ent o</w>
c eleni</w>
Bha bhu
! ”</w>
y u
le ke</w>
e n</w>
uk e</w>
th u
len a</w>
ku yawu
ining wane</w>
c k</w>
La ba
v im
si celo</w>
k et
el ek
bh e
Bea utiful
e khaya</w>
len ye</w>
ba ng
and la,</w>
h a</w>
B onkhe</w>
- ke,</w>
ngi nga
ya bo</w>
li lo</w>
laman ye</w>
f ake</w>
ba la</w>
( 1
ku -
ent ela</w>
H am
lis wa</w>
nget e</w>
dzima te</w>
R i
J a
sh e</w>
li ngan
kha sh
Sim phiwe</w>
Lo ko</w>
G o
“ Ngi
le y
l l</w>
bu lala</w>
Jo se
on e</w>
na -A
li we</w>
leti si
dz el
ts ele</w>
ngi lo
ngi ku
h lela</w>
an e,</w>
V el
te ti
N dvodzana</w>
dz e,</w>
Ku fanele</w>
im isebenti</w>
g i</w>
e ba
L eti
ta ma</w>
s we</w>
phrof ethi</w>
is a.</w>
Ng em
su ku
sa y
nd eni</w>
lel a
bh ek
ta lwa</w>
r o</w>
e kha
ngeli langa</w>
n dza
ban e</w>
et ela</w>
Bea siswa</w>
u M
bi le</w>
b ema
N am
K we
si ko</w>
bi an</w>
s eni</w>
khun dleni</w>
yi bh
t o,</w>
ngu bani</w>
eti kwa
con dvo</w>
Mo ya</w>
La ma
khon o</w>
d lo</w>
Jerusa lema</w>
phe tse</w>
lo ko,</w>
cum o</w>
u bu
so lo</w>
na mi</w>
i be</w>
P o
ku yo</w>
ya khe,</w>
la ti
Ng eku
y oni</w>
.. .
ri ya</w>
n tfwan
u ku
ish a</w>
dz ini</w>
d la,</w>
wen i.</w>
t e.</w>
se bu
ngem i
n el
ti ng
on o</w>
fun dvo</w>
e -
t t
za tfu</w>
lo be</w>
fu la</w>
cin iso</w>
Nje ngobe</w>
Nga be</w>
um tsetfo</w>
u yi
k imi</w>
dza bu
ba fundzi</w>
si ti
V u
lel is
bili ,</w>
lengi we</w>
kan tolo</w>
a )</w>
phi le</w>
phe f
ku khona</w>
g u</w>
bi twa</w>
na se</w>
lo ve
bon elo</w>
s o.</w>
kwe tin
kakhulu ,</w>
in tfo</w>
lu tfo</w>
en ce</w>
zi nga</w>
Lo ku
C o
w i
th ic
faka zi</w>
tsi m
se yi
in ya
le ta
is a,</w>
gc wele</w>
be asi
ba la
lung is
kh ish
wan o</w>
wa khe,</w>
tim a</w>
hluk ene</w>
un e</w>
t eli
nge khatsi</w>
laba m
K um
w and
li ></w>
</ li></w>
tsem ba</w>
tj ele</w>
r ea
lwa ,</w>
p e
dv wa
b enta</w>
tsem bek
d lo
bu ya</w>
s ,</w>
bu hlu
an i.</w>
So lom
p i
om i
tsa tse</w>
ti ya
ph ele</w>
kho si.</w>
e tim
ba se</w>
N o</w>
th ula</w>
sen i
m unye</w>
in dvodza</w>
ra ha
R o
N an
ta la</w>
d le</w>
c o</w>
ta wa
kh and
ba li
e d
vik ela</w>
Jud a,</w>
lwa .</w>
e Gibhith
b elo</w>
wu ,</w>
hla ka
sa mi</w>
tfom bi</w>
la ti</w>
F un
2 0</w>
g o</w>
Fi lis
na to</w>
ba tsi</w>
H o
ya kho,</w>
tin dlela</w>
cha za</w>
bonaka la</w>
tj a
t y</w>
tsa ba</w>
s elu
langa ,</w>
w ela</w>
r am
e hlu
Bha yibh
“ U
ng weni</w>
kim i,</w>
el in
tfu pha</w>
a bo</w>
H la
v in
ngilo si</w>
ku ca
el elo</w>
na wo</w>
m o</w>
li ma</w>
la li
ema -Israyeli</w>
u li
nga ti
lelin ye</w>
A be
1 8
ngek wem
ki nga</w>
khe tsa</w>
gu c
na wu
dv un
ya khe.</w>
su ngu
om u</w>
je z
hla .</w>
el ana</w>
a ya
phrof eth
nja lo,</w>
l y</w>
ku to</w>
wen i,</w>
ten u</w>
la wo</w>
j wa</w>
wam i,</w>
wa bo</w>
r d
g un
ent s</w>
be ti
p a</w>
chu bo</w>
bo nga</w>
D o
D e
, "</w>
ts aka
t h</w>
sa ,</w>
ngaph am
Sawu la</w>
s wa
ng un
inik elo</w>
f a,</w>
e N
Nak u</w>
A si
1 1
tin hla
t e,</w>
phef umu
y ent
ti c
nga se
n ako</w>
L ema
H lengiwe</w>
y ona</w>
v er
m untfu</w>
ce dza</w>
b y</w>
tsi wa</w>
khulum e</w>
Ta g
I ma
ya se</w>
s to
le to</w>
ce bo</w>
busi so</w>
be si
nga be
ngu ye</w>
lo w
kwa m
kho sini</w>
jabu la</w>
goli de</w>
d u
li fa</w>
lama bili</w>
ku phel
L am
w ini</w>
k ona</w>
b isa</w>
A n
tsi ni
na we</w>
ind lu</w>
fundz isa</w>
G e
le y</w>
ch um
ba ku
v ula</w>
shi ya</w>
ma yelana</w>
N ome</w>
Khris tu
web site</w>
sin dvo</w>
end lu
ema dvodzana</w>
dolo bha
iny enti</w>
hluph ek
e Ningizimu</w>
Ngi yawu
hla lo</w>
Mtsetfo sisekelo</w>
s o,</w>
nya ma</w>
nje nge
kho h
ti wa</w>
ngi tsi</w>
na lowo</w>
leya yi
l y
kuye :</w>
kho si
cin dz
Ng esi
ma r
v a,</w>
ngem nyaka</w>
j am
in iningwane</w>
gh t</w>
e M
ban tfu,</w>
ti nga
ta li
ku laba
e ;</w>
bu ye</w>
ne s
kwa kho</w>
and la.</w>
P awu
wa ya</w>
sa se
lel u
hliti y
e sa
B esi
ti ko</w>
nake d</w>
na loku
lu sito</w>
lin ye</w>
gi j
ak an
Li ve</w>
nj e,</w>
ema vi</w>
dzing o</w>
d i,</w>
c el
tf uny
k eti
i le
fu tsa</w>
a sh
U ya
tim e</w>
la kho</w>
Y ea
La ban
Jeho va</w>
D eli
ng wane</w>
langa .</w>
beasi swa</w>
la la
is ana</w>
el ini</w>
! "</w>
tfu ba</w>
phum a
ag o</w>
lwa ti</w>
end lu</w>
d la.</w>
ts a,</w>
say s:</w>
len khulu</w>
ku bha
an a,</w>
1 2
y eli</w>
t ake</w>
ngi tawu
ku bona</w>
fo r</w>
bha lo</w>
Le vi</w>
tsa tfwa</w>
themp eli</w>
li be</w>
is ha
hla z
bu yela</w>
ba kho</w>
phel ele</w>
nge ph
na bo
ma ti
c am
a wa
0 .</w>
khan dza</w>
dolobh eni</w>
Le tin
can dz
bek wa</w>
ba bo</w>
un tfu,</w>
khun dla</w>
be te</w>
K ho
ta mi</w>
en u</w>
ban tfwa
Davi de,</w>
yin ye</w>
si tawu
ngeku landzela</w>
lo ko
kh we
i Nkhosi</w>
d .</w>
ngam eli</w>
lesi nye</w>
ku we</w>
i yawu
bu to</w>
Ma r
-A m
sh is
pha wu</w>
h ho
condz ana</w>
tu ngel
ngcwel e,</w>
li si
l and
ku wo</w>
hle ti</w>
ban tfu.</w>
B eku
w elu
ph ik
la Simakadze</w>
b ik
we tfu</w>
v en
ngen a
kan jani</w>
f iny
e celeni</w>
Sh e
y enta</w>
nga phasi</w>
el eka</w>
J ak
ye ar
wu lo</w>
ve l</w>
ku Simakadze</w>
i we</w>
be .</w>
Jerusalema ,</w>
A ka
u r
em hlaba
e t</w>
balu lekile</w>
(1 )</w>
y i,</w>
ts ek
ni yawu
c em
vide o</w>
tfu la</w>
ku lo</w>
hlatj elo</w>
hambis ana</w>
bu lo</w>
T o
B usi
z in
yin i?</w>
u ba
li va</w>
le ba
ish i
h lom
ako :</w>
1 4
se kutsi</w>
c ham
) ,</w>
y elu
uk u</w>
t ane</w>
sa .</w>
nya lo</w>
le :</w>
end lel
0 0</w>
wa kha</w>
wa ka
ti s
chu bek
a se</w>
O n
K onkhe</w>
tsin e</w>
th i,</w>
a ba</w>
Jak obe</w>
khon a
im philo</w>
T ha
R u
khu tsa
b )</w>
sha ngatsi</w>
on i
leli ve</w>
kh wa</w>
hha yi</w>
an e.</w>
Em vak
em seben
bea utiful</w>
aka zange</w>
a tsi</w>
0 ,</w>
z ar
th ende</w>
k ini</w>
hla ,</w>
ba mi</w>
W e
-1 9
w ona</w>
na yo</w>
kulun kulu</w>
eth emp
emeh lo</w>
dz eni</w>
c k
B i
s ak
nga so</w>
lis ela</w>
Vel onkhe</w>
S in
ye bo,</w>
un a
ri ya,</w>
kw elu
a l</w>
C on
suk e</w>
ku ta
ka bi</w>
M in
Bhabhu lona
t andla</w>
emhla ben
c ele</w>
1 5
un i
te r</w>
laban yenti</w>
in hlitiyo</w>
1 3
tim phahla</w>
phaka dze</w>
ku ku
Ng en
sh isa</w>
pho yisa</w>
no ko</w>
lah lek
k isi</w>
f isa</w>
a kho</w>
B es
te d</w>
sek ela</w>
nga sem
letin yenti</w>
i tawu
h an
ne bantfu</w>
Si ya
Li bito</w>
H ome</w>
! !</w>
ta l
la mi</w>
hlitiy weni</w>
es andleni</w>
el o,</w>
Ph ela</w>
Jes usi
wa si
ngi ti
khulum o</w>
is ele</w>
aka m
Ma hla
sh umi</w>
le be</w>
ka hle.</w>
emhla beni</w>
ca shi</w>
yin khosi</w>
ti on
se ,</w>
phe ph
ngu Simakadze</w>
lu ngile</w>
landzel ako</w>
ku phila</w>
y wa</w>
ti be</w>
thic o</w>
ku ye,</w>
khan ya</w>
f a.</w>
ek i</w>
an a.</w>
Ni nga
00 0</w>
pha tsim
in ye</w>
et wa</w>
bek we</w>
b elu
anananan anananan
, ”</w>
em vak
Sha ngatsi</w>
N em
wa phendvula</w>
lel we</w>
D an
ye tin
v a.</w>
lu ngi
i N
emeh lweni</w>
" A
uneven tful
nje ngen
li ma
.. ..</w>
ng ini
kh el
j ik
bon i</w>
S A
B am
3 0</w>
w andle</w>
lesi khatsi</w>
la lela</w>
hla ngabe
esi khundleni</w>
an e
1 0</w>
tfwa lo</w>
labe ngaba</w>
la ka</w>
ku we,</w>
khun i</w>
khi wa</w>
fun i</w>
ek we
bho kisi</w>
nga len
nem andla</w>
na -
kusuk a</w>
em eta</w>
D i
Ba tsi</w>
vel onkhe</w>
t eka</w>
c ish
Em p
2 )</w>
yin tfo</w>
y elo</w>
nga lo</w>
ndza won
na sem
n cane</w>
lu hla
letim bili</w>
lama dvodza</w>
cindz et
beku ngu
wa yi
n im
la wu
ge s</w>
g ula</w>
e zulw
G u
um hlaba</w>
tsa .</w>
p e</w>
nan dzi</w>
kwent ela</w>
ca la
L e</w>
1 7
( a)</w>
ny aka
lan dvo</w>
ku sebenta</w>
ba ba</w>
lom khulu</w>
gcin e</w>
em u</w>
Ye bo,</w>
J ako
suk ela</w>
sin ye</w>
M tsetfo</w>
v eta</w>
ts eni</w>
ti yawu
sa si
om ish
n o</w>
la ku
khu ngo</w>
khand lu</w>
buhlu ngu</w>
ya ma
wa khe.</w>
tsa beni</w>
ti tukulwane</w>
ak e
S eb
Na ta
Jo shu
ye bu
phaka dze.</w>
kubo :</w>
hlo la</w>
ca lek
bh aka
No ko</w>
tim u
si be</w>
man je</w>
lo kwa
li cala</w>
Jose fa</w>
uk ele</w>
ge be
ba si
I -
yel we</w>
wa be</w>
li ya
le ;</w>
khom o</w>
A ku
phak eme</w>
la lel
l d</w>
ku tsi:</w>
khe ;</w>
kha tsa
eh lo</w>
Deli gh
" U
r y</w>
le ngema-
lamu hla</w>
kwent eka</w>
kw el
f omu</w>
ak eni</w>
T onkhe</w>
L et
19 9
s ent
nge kho</w>
lom untfu</w>
kusa sa</w>
hlo so</w>
v isi</w>
sen dvo</w>
nam unye</w>
lo g
li gama</w>
kw entiwa</w>
end lula</w>
ang eli
Pawu la</w>
vik i</w>
lo ts</w>
em et
e ng
dv weni</w>
cum bi</w>
zu zo</w>
um ntfwana</w>
ti -
phatsim andla</w>
p r
ku yi
b iko</w>
S wa
Ng ema</w>
2 3
si ka</w>
s u</w>
le ye
ka bu
Le vel</w>
Gibhith e</w>
ya ma</w>
wa hamba</w>
ulu ,</w>
son o</w>
sha ,</w>
ngu bo</w>
-A b
v uka</w>
v u,</w>
nga sen
hlaba ,</w>
em inyaka</w>
dv o.</w>
S is
ta g
si pa
longu Som
kwem i
h lo</w>
d e.</w>
Vu si</w>
V a
Ngesi khatsi</w>
t ent
ngent eka</w>
mi tha</w>
i ;</w>
ya kho.</w>
tf weni</w>
tem i
t :</w>
si le</w>
ngu lu
dz ima</w>
bhubh isa</w>
Bhayibh eli</w>
“ N
ye tfu</w>
yak we
t elu
ph i,</w>
ph en
i r
hlu leka</w>
Mo wa
tawu ba</w>
phum elel
ngum untfu</w>
f or
et andleni</w>
c s</w>
M u
Li fe
ya tselo</w>
imi yalo</w>
ek a
2 4
tu lu</w>
na le
lw em
lo ko.</w>
la gi</w>
dv on
tj wa</w>
su sa</w>
r oni</w>
gu gu</w>
go dzi</w>
e ta
1 6
y eli,</w>
ngo ti</w>
ma sin
lu lwimi</w>
la ngema-
kwa tsi</w>
ku Simakadze,</w>
khumbu la</w>
ke ting</w>
d lala</w>
cinisek isa</w>
busi siwe</w>
be r
wa bo
um fati</w>
tsetf weni</w>
t we</w>
f ela</w>
bu la</w>
z ulu</w>
z ing
u t</w>
lin dz
letin tfo</w>
kon dlo</w>
khulu ny
ca la.</w>
ban tfwan
a ben
Lo wo</w>
um oya</w>
ta khe,</w>
phefumu lo</w>
nge sa
na nga
dvu te</w>
can e.</w>
bo lo</w>
nje ngesi
n ani
lis i</w>
li ng
k imi
h lek
con dze</w>
bon dza</w>
Sa th
Ph et
“ Ku
wa yini</w>
tse nga</w>
seb ent
on i.</w>
etin dzaweni</w>
M hlaba</w>
E ku
tin dzawo</w>
si ta
la bantfu</w>
la ;</w>
ku phi</w>
khi we</w>
k ake</w>
ish umi</w>
ing o</w>
ind eni</w>
en jam
ban ti</w>
ba lwa</w>
B ani</w>
sa la</w>
ma n</w>
kwa bo</w>
kem ba</w>
in dvodzana</w>
im o
f ish
z i,</w>
pha tsi</w>
na si
lo k
fik eti</w>
con dza</w>
c wan
Jo rd
2 2
si vumelwane</w>
phe pha</w>
li ti
le -
im u,</w>
g we
bu lu
bhi dli
a yawu
Kan tsi</w>
wa tsatsa</w>
ngu lo
ng enta</w>
j i</w>
ca la,</w>
be wu
ban dla</w>
tsam bo</w>
ta r
sebenti .</w>
na labo</w>
ema gama</w>
dvum o</w>
ba yi
ba ya</w>
ba te</w>
Si bo
ya yi
umu sa</w>
tfutfuk isa</w>
ngu Simakadze,</w>
khon e</w>
ha ,</w>
el ine
dz in
ak i</w>
W onkhe</w>
2 1
u se
tfom be</w>
nga -
kwa mi</w>
-E f
zin isi</w>
n in
iket wa</w>
ba nga</w>
S ong</w>
S am
y .</w>
tsetf o,</w>
ngi ngeke</w>
f ile</w>
chu bom
Le vel
H lu
F u
A l
un tfu.</w>
ton o</w>
tj ana</w>
te tin
phakam isa</w>
na ngi
lo si
le s</w>
esi veni</w>
a kha
L on
Ab raha
( b)</w>
v uma</w>
sha do</w>
e l</w>
Me ngameli</w>
Kh en
yen u</w>
phum u
nak u</w>
ku se
ku faka</w>
gu cu
ben e</w>
Th e</w>
M ini</w>
-Isray eli
uneven tful</w>
tfom bo</w>
ngcwel e.</w>
kw entiwe</w>
e d</w>
za lwane</w>
yi phi</w>
wa kho,</w>
lo -ke</w>
laba nga
in cenye</w>
dla lo</w>
Laban ye</w>
" Ngi
yenti .</w>
year s</w>
sh ona
p p
lu m
loku bi</w>
g cu
end lela</w>
eman g</w>
a ma
S en
Joh ane</w>
Far o</w>
. </li></w>
nema dvodzana</w>
len dzawo</w>
ku tfola</w>
i t
er i
ea r
bhu j
U yawu
H u
Bh enjam
tin yanga</w>
sha d
sh i,</w>
ma condzana</w>
leti nga
ku fa</w>
ke ta
i tsi:</w>
enti le</w>
dz i,</w>
ng o.</w>
lu si
hlaba tsi</w>
a d
Afri ka.</w>
ngi yaku
len i,</w>
kw an
kun ye</w>
ku lo
kha timu
i la
ba phristi</w>
P r
J obe</w>
A ngi
1 ]</w>
wa kho.</w>
wa Nkulunkulu</w>
tsin tsa</w>
phendvu lo</w>
nje ngeli
ngapham bi</w>
lo se
lel an
be yi
ba tawu
S on
Beautiful ,</w>
? ?
3 )</w>
sh iswa</w>
s enta</w>
nga to</w>
nga loko</w>
na seku
lama tsatfu</w>
ho la</w>
ethemp elini</w>
esi ga
bhi zinisi</w>
bha lwe</w>
Pha lam
In dlela</w>
ye -
ya mi
y elwa</w>
wa fike</w>
w entiwa</w>
ti lwane</w>
sha .</w>
phin dza</w>
ngu -1
ngi ta
fan eli</w>
em e
chubom gomo</w>
bo sh
ya yo</w>
wen u,</w>
t ele</w>
lo ka
E ti
sin e</w>
ku Nkulunkulu</w>
ing i</w>
ba lek
ak ek
Ne w
Mo si,</w>
Ku be</w>
1 .
wa -A
tsetf o.</w>
ti sa</w>
phum e</w>
nje ngeku
ngem andla</w>
ku njalo,</w>
hloni ph
hla bel
emseben tini</w>
bam bis
ba holi</w>
Solom oni</w>
ng aka</w>
k ini
i s</w>
e Jerusalema</w>
ci ph
b le</w>
b isi</w>
Vi de
1 2</w>
vum e</w>
tse ngis
na ngeku
li le.</w>
ku bu
khu ph
khash ane</w>
kan cane</w>
Ng eli
Na wu
v elo</w>
u ngum
sa yi
Jesusi ta</w>
v i,</w>
tin i.</w>
ngu Nkulunkulu</w>
bu ke</w>
Filis ti</w>
2 5
ti le</w>
phris ti,</w>
kho kho</w>
kh i</w>
in dza
fu nga</w>
ema lungelo</w>
bam be</w>
Lo lu
L el
l ana</w>
gcin eni</w>
em uva</w>
com m
Yea r</w>
M ana
Kh e
Jerusalema .</w>
A d
um timba</w>
u yise</w>
ta bo,</w>
ku cala</w>
i l</w>
fan ek
Ngu yen
Bha la</w>
tj in
si ka
ngen isa</w>
ng ela</w>
loku nga
len i.</w>
ku labo</w>
kho lo</w>
kh wa
kan jalo</w>
hlaba .</w>
et j
an g</w>
abe sa
On khe</w>
L isa</w>
Kh omish
Fun dza</w>
v o</w>
sema -Israyeli</w>
lelan dzel
la k
ja ha</w>
ema dolobha</w>
em o
co ka</w>
bo ma
a phindze</w>
W o
E n
ye M
w n
u n</w>
ti kha
seku dla</w>
na ba
hlangan isa</w>
ce ce
ca le</w>
C om
t r
nek we
loku m
hha shi</w>
aku si
N ami</w>
A m
ye a
ni ya
ng o,</w>
lesi khulu</w>
le ngen
ku bon
ik wa</w>
dvum isa</w>
bo ngo
ani ?</w>
S eku
F a
zu z
u funa</w>
tim e
ti tsa</w>
nja lo.</w>
nj e.</w>
n cono</w>
hlo n
dz i.</w>
Sa ba
B eka</w>
ya Simakadze</w>
uk el
si yawu
p ela</w>
p ani</w>
ngaph in
lan d</w>
ba ngi
ba hamba</w>
Ma ga
tim eline</w>
si phi</w>
n ake</w>
l .</w>
hlakani pha</w>
tfo ko
sh uma
r .</w>
khel wane</w>
kha m
bo ba
F utsi</w>
-A si
ya ba</w>
wa wu
tfom ba
n ika</w>
loku ngen
khi phe</w>
in dzaba</w>
el o.</w>
Les bian</w>
Ema dvodzana</w>
2 1</w>
1 1</w>
yek ela</w>
si s
she ya</w>
le tse</w>
dzingek a</w>
dv we
cinisek o</w>
Nguye t</w>
Jes u,</w>
ya kho
ya Nkulunkulu</w>
vu sa</w>
si sebenti</w>
na lesi
loku hle</w>
lish umi</w>
ku yo
ce dze</w>
ba nge
an s</w>
N aka
( i
ya la</w>
tsemb iso</w>
tfun ti</w>
ri cs</w>
ku bantfu</w>
imi tsetfo</w>
hlam bi</w>
endlel eni</w>
bu ti</w>
wen a,</w>
t et
sebenti se</w>
phi la
li le,</w>
ku loku
ku lelo</w>
g el
eki le.</w>
cin isi
cham uka</w>
ba li</w>
1 4</w>
z i.</w>
wan e,</w>
tin d
r u</w>
om bolo</w>
ngi ba
nga -19
ng ako-ke</w>
lo tsa</w>
lesi vumelwane</w>
kan j
dolobha ,</w>
chum ana</w>
W ha
S wati</w>
Ma kha
y ,</w>
umbu so</w>
sa khe,</w>
sa belo</w>
pha wu
na ngem
ku lama
kho kha</w>
hluk ana</w>
ema ga
bu fakazi</w>
bon kulunkulu</w>
Si ve</w>
ts elela</w>
ta bo.</w>
ph a,</w>
no tfo</w>
gu cuk
d im
co la</w>
2 .</w>
nga wo</w>
les bian</w>
gam eni</w>
fak wa</w>
enti sa</w>
an ye</w>
aba zange</w>
C and
, ’</w>
vam e</w>
si b
la yet
ku ye.</w>
im ininingwane</w>
em u
ba tali</w>
an ani</w>
Ng o
Li f
yem i
yeku tsi</w>
vum o</w>
ts ana</w>
tj i
s ham
phan si,</w>
ngeph andle</w>
kan i</w>
inga ti</w>
esi hla
ca n</w>
bo wam
N oma</w>
N obe</w>
Ku tsi</w>
v ini</w>
tin hlobo</w>
nase ti
le se</w>
kusi ta</w>
kha kha</w>
hlu lela</w>
gun ya</w>
f ea
e ?</w>
dza la,</w>
dv o,</w>
ca li</w>
a ?</w>
Kum ele</w>
E si
C aba
yi Nkhosi</w>
tse tsel
ts eka</w>
ng cwa
k we</w>
is o
in ceku</w>
e Si
Nata sha</w>
Man je</w>
Jud a.</w>
yon i,</w>
yek ele</w>
ti tfu
sam i,</w>
s weni</w>
ny enti</w>
lo u
la lele</w>
khom ba</w>
hluph eka</w>
go d
cwa dzini</w>
bula wa</w>
ban dz
Joshu wa</w>
H i
z iny
si t
lw en
leli khulu</w>
lel a,</w>
kwa ze</w>
khici to</w>
k wa</w>
in cwadzi</w>
i ya</w>
hluk en
gci li</w>
ba khe.</w>
ang ana</w>
L a</w>
B uk
ta lo</w>
ta khe.</w>
na leti
lesi m
ka nga
fu yo</w>
beku bo
a tewu
a bo
Ma hlasela</w>
y ana</w>
nes s</w>
lo ngi
langa ba</w>
en khosini</w>
eku ca
W or
" Ku
w eli</w>
w ani</w>
u bo
tt le</w>
pho -ke</w>
on khe,</w>
len dvodza</w>
khe tsi
i d
fa ti,</w>
chaz elo</w>
ba sa
Si busiso</w>
S amu
P i
Ng e
Lu s
ve r</w>
tim iso</w>
she sha</w>
na ye.</w>
lo tawu
li -1
la ngeni</w>
g et
co sha</w>
bu suku</w>
bhu be
Wa se</w>
Cha ,</w>
yenti ,</w>
ti bo
sa khe.</w>
phum elelo</w>
pho hlo
ph eli
na ti
na lom
landzel ako:</w>
k ing</w>
hla laka
go dzini</w>
end eni</w>
bon a,</w>
and a</w>
U n
J ona
1 5</w>
we sive</w>
tsa tfu.</w>
tfwa la</w>
tfuny wa</w>
ngu lowo</w>
kw ente</w>
jo ngo</w>
eku seni</w>
dvo lo
Kh umbu
Jer emi
A se</w>
um nikelo</w>
ts en
tf a
ngan a
m ane</w>
ku tewu
ku t
h e</w>
A ha
ne -
k ing
ek o</w>
bu si</w>
ban i
ban dlu
ak eth
G rea
wa loko</w>
wa bona</w>
u te</w>
sin cumo</w>
lete hlukene</w>
le ?</w>
ku Simakadze.</w>
khe tfwa</w>
c )</w>
be ngi
ang o</w>
1 8</w>
-E d
ye n</w>
tin dzaba</w>
te tfu</w>
ngema mitha</w>
lo yawu
ha wu</w>
dli wa</w>
da lwa</w>
ch o
c i</w>
bom naka
ti tselo</w>
sem khatsini</w>
ph on
ngi tsi:</w>
lwan e,</w>
la ngu-
hla ka</w>
gcwa lis
g ra
e gameni</w>
dza dze
ban a
Sa ma
H lo
wam i.</w>
vi sisa</w>
tsini .</w>
th o
pha tfwa</w>
nga tsi:</w>
li nga
k ini,</w>
ik ele</w>
eki le,</w>
co bo</w>
S an
Ngem uva</w>
Len a
ta yo</w>
sindz isa</w>
ph iko</w>
nga leso</w>
na tsi</w>
kabu sha</w>
can e,</w>
T iko</w>
Ngen ca</w>
La bo</w>
-Ef ray
wa wa
um ka
ta la
s !</w>
ph ula</w>
nja lo
ngu M
n dzawo</w>
lesa si
kuba lu
ho lo</w>
dv we</w>
ba ngani</w>
Lo k
I sa
“ Ng
ziny ane</w>
ya tsi</w>
ulu .</w>
tak wenta</w>
si mi</w>
se .</w>
sa lom
sa g
s elwa</w>
r d</w>
ngu .</w>
la hla</w>
khi wo</w>
ka hle,</w>
jabu lo</w>
hlan yelo</w>
hho visi</w>
cuk e
Ne ga
La bel
Bhabhulona ,</w>
Abraha ma</w>
( 2)</w>
won khe.</w>
u ye</w>
tfuku tsel
nje ngoba</w>
ngum nikelo</w>
la khe.</w>
l ine</w>
ku bo,</w>
ki tsi</w>
ham bi</w>
ci tsa</w>
candz eka</w>
bonaka liso</w>
b eli</w>
Phet ro</w>
2 4</w>
ya ti</w>
wa kh
t ako</w>
si gaba</w>
r oni,</w>
ph i.</w>
ma ngo</w>
lesi n
le ti</w>
ga tjana</w>
g ca
fu leni</w>
yam i.</w>
tsi sa</w>
tfum ele</w>
t ,</w>
sha yam
s ente</w>
p p</w>
lesi dze</w>
kan ja
isi we</w>
i tsi</w>
hlu ka
hlo lo</w>
fun dze</w>
e .”</w>
dvum bu</w>
dvo dza,</w>
ban a</w>
T ho
Si bonelo</w>
M p
B uka</w>
3 0
ti sebenti</w>
ta wun
sh ini</w>
pha tsel
ph u</w>
ngu cuk
nga lelo</w>
lw eni.</w>
lesi nga
ish o
hloni pha</w>
eku f
dv wa,</w>
b ente</w>
yin i
wa yo</w>
wa li
th i
ta kho,</w>
se ka
phan si.</w>
on khe.</w>
ndzawon ye</w>
n onkhe</w>
n ini</w>
ma tima</w>
la bo
kwa loko</w>
kun ika</w>
ku yawuba</w>
khe ?</w>
el ane</w>
ek a.</w>
co ba</w>
Nga lelo</w>
Jes u.</w>
2 8
tinhla vu</w>
tfuku tselo</w>
p an
nya ngo</w>
li ciniso</w>
im u
ik i</w>
h e
e j
d i.</w>
ba lo</w>
a lu
Ku sukela</w>
Gi leya
5 0</w>
w ela
u se</w>
tf i
s ana</w>
phuma langa</w>
phi la.</w>
ni ti
manga la</w>
laph o,</w>
la se</w>
kwa khe.</w>
kunga ba</w>
ku leyo</w>
hla nga</w>
ham bo</w>
cish e</w>
Jako be,</w>
Ba yawu
zing eni</w>
weku cala</w>
th ani</w>
tfun j
sa ti
na -E
l le
kwa se</w>
khuluny wa</w>
ka ngak
h o</w>
f elo
esi khatsini</w>
en t</w>
ba fati</w>
Ti t
Phalam ende</w>
E li
ya ngeni</w>
wa ze</w>
wa ngi
ven tful</w>
ti ma
ti khatsi</w>
sikha tsi.</w>
ngum u
lo yo</w>
ku tsi
ku ny
khulu la</w>
e )</w>
E k
" N
wa ku
un eli
si bon
sh ana</w>
sa nga
nga yo.</w>
ng ele</w>
lon dvolo
li phu
lem inye</w>
lel ani</w>
kwem inyaka</w>
ha wu
bu t
2 5</w>
z u</w>
yin i,</w>
vide o
u wa
u bha
ta ti</w>
s )</w>
ni be</w>
lwan e.</w>
layet o</w>
hlo phe</w>
ba kho
a wo</w>
T ran
Sath ane</w>
L ong</w>
y iswa</w>
wan e.</w>
tseng isa</w>
ta se</w>
son dzela</w>
si tive</w>
s si
o ;</w>
ngen am
na nge
min e,</w>
lon yeni</w>
leli -1
laba hlala</w>
ku ngu
khatimu lo</w>
da la</w>
co u
co tfo</w>
bha liwe</w>
bh er
a yo</w>
Davi d</w>
B e</w>
.[ 1]</w>
yi li</w>
yi .</w>
wa mi
te bu
pho sto
p or
lo a
khum bi</w>
en hlitiyweni</w>
ema kha
be r</w>
ba khe,</w>
V ang
Sawu bona</w>
E s
A ngeke</w>
A bo
tim vu</w>
t ch</w>
son dz
ku neku
khomb ise</w>
ema -
eli dze</w>
bon ile</w>
be ta</w>
ba bo
a khe,</w>
T sa
P u
I N
yek we
we ;</w>
tu be</w>
ten u,</w>
t ra
si se</w>
ni tsi:</w>
lin ani</w>
lek i</w>
lahlek elwa</w>
iket we</w>
hlan yela</w>
hlaka lo</w>
ema lunga</w>
e dolobheni</w>
bh e</w>
ben u</w>
ban tfu
ang aka
a nge
a :</w>
Nga leso</w>
Ng etulu</w>
Bhabhu lona</w>
th ek
ta bo
nge -
ngan i
loku ,</w>
ek a,</w>
ben i,</w>
a ;</w>
1 3</w>
wa kho
v es
sipa la</w>
qu e</w>
m y</w>
loku khulu</w>
li dolobha</w>
lengi ku
leng th
la Simakadze,</w>
is eni</w>
ik ete</w>
i tha</w>
h lane</w>
gebe ngu</w>
el weni</w>
Ph o,</w>
N om
Lu sha
Le ng
Kh i
Deligh tful</w>
2 2</w>
-A f
wa hlala</w>
tja lo</w>
phi lako</w>
p on
ngu yise</w>
n ya</w>
lung iswa</w>
ku we.</w>
ku ta</w>
j wa
guc uka</w>
dza la.</w>
bha bha
bh eke</w>
U ne
Li fe</w>
J abu
He z
D u
we tin
ts ani</w>
ma s
lo ti
ka faneli</w>
im e
hla wulo</w>
da y
balu leke</w>
a t
Li vi</w>
ye t</w>
we tfu,</w>
vi vin
un tfu
si ye</w>
ng isa</w>
lwa khe</w>
len dzaba</w>
lel u</w>
le .”</w>
khulu ngwane</w>
ka ngaka
enti .</w>
e bantfu</w>
con dzi
bea u
ako -ke,</w>
a y
Bes t</w>
Be nga
yi -
x t</w>
vaka sh
ta to</w>
si li
omi di</w>
li lunga</w>
le ya</w>
kwa khe,</w>
kuphel a.</w>
g lobe</w>
e Jerusalema,</w>
bang ela</w>
Ngi tawu
Ku ta
Gibhith e,</w>
went eka</w>
vi le</w>
ti va
nje ngema
ngam ele</w>
men t</w>
le bu
hh u
gij ima</w>
en cwadzini</w>
ema khosi</w>
cin isa</w>
chu beke</w>
L ona</w>
wa cala</w>
u khuluma</w>
tsem beka</w>
th o</w>
tf uma</w>
sim bi</w>
phaka dze
jabu lisa</w>
is o,</w>
gcwa lisa</w>
fun dzi
fak we</w>
em phi
bam i,</w>
Si gaba</w>
H lala</w>
wa yawu
wa bu
wa -
tu bulo</w>
seb ente</w>
sa ba
ngi le,</w>
ngeti we</w>
nge sandla</w>
na letinye</w>
lo se</w>
lam i,</w>
kwen u</w>
kha li</w>
fea t.</w>
ema butfo</w>
dze be</w>
dvu dvu
ciph isa</w>
c ome</w>
bha li</w>
bandlu lu
a ze</w>
a b
Man je
Ham ba</w>
ye ba
wema -Israyeli,</w>
wa tfumela</w>
vum ela</w>
ts e,</w>
ti phatsa</w>
tesi ga
r s</w>
na yi
lwa kho</w>
la ben
is wa.</w>
imi bono</w>
a la</w>
P ho
Jeho ya
2 9
“ Si
tak we
ta wo</w>
sen tim
se tin
phatsel ene</w>
ngi be</w>
lu tfo,</w>
khon i</w>
d ne
co c
bh eka</w>
ba ti</w>
an ti.</w>
T se
S ise</w>
Ba se</w>
-A sh
v una</w>
ulum end
ti fiketi</w>
thanda za</w>
sa le</w>
ngu ,</w>
ngeli vi
le r</w>
lan g</w>
la hle</w>
khulu leko</w>
h lisela</w>
gu ngu</w>
em va</w>
c uma</w>
bo vu</w>
ban j
Sh i
Khristu .</w>
A u
2 .
1 7</w>
yaka tfo</w>
wem uk
we -
sib :</w>
phin dz
na lo</w>
laman yenti</w>
lam o</w>
lah leni</w>
kho di</w>
h lu</w>
guc ula</w>
buyis ela</w>
T em
J eh
x x
wen dlu
sin khwa</w>
sikha tsi,</w>
shayam tsetfo</w>
sh in
sem tsetfweni</w>
phak an
ngi li
na leli
le ts</w>
la khe,</w>
kwam i,</w>
ku ngaka
ku fike</w>
in dvodzakati</w>
hlangan yela</w>
hlakani phile</w>
h umu
fanek iso</w>
b ika</w>
a bha
Y enta</w>
Si fiso</w>
R es
Ng isho</w>
La pha</w>
? ’</w>
yet i</w>
wa chubeka</w>
sek elo</w>
s ti
ngi ko</w>
ngan ani</w>
ngak e
nan obe</w>
le kwaku
la pha
ku ko</w>
khu ba
hlukan isa</w>
hla sel
finy elela</w>
esi ko
ek ako</w>
cem be</w>
c wane</w>
busi sa</w>
an ta
Ngem nyaka</w>
Ku ngani</w>
Ku nga
Emp eleni</w>
A le
A g
yin i.</w>
wen u.</w>
ta yel
ta kho.</w>
t ani</w>
s om
s ako</w>
ngucuk o</w>
lel im
ku leti
khish wa</w>
im inikelo</w>
hla ngene</w>
h el
dz isa</w>
c we
c ulu</w>
bu t</w>
bu kha
be tive</w>
Y eku
T u
Ng am
Jer o
Hlu hlu
Hez eki
A sh
wa phindze</w>
w ek
u phindze</w>
u f
ti mali</w>
so n</w>
site :</w>
s ela
ph eli</w>
ngis a
ngem a</w>
la Nkulunkulu</w>
kw endlula</w>
ku hlala</w>
i li
hlan hla</w>
e k</w>
d li</w>
abu ye</w>
T j
Letin ye</w>
Ku sho</w>
He bher
u r</w>
sh ona</w>
sa bek
s ta
pu la
ngu we</w>
ngu laba
ngetin dlela</w>
ne sive</w>
lo wenta</w>
la kho,</w>
kwa kha</w>
ku Nkulunkulu,</w>
en ta
em etela</w>
ben i.</w>
Ye bo</w>
Tag :</w>
D ev
“ Nangabe</w>
z ana</w>
wem ukela</w>
wa tala</w>
len hle</w>
lel a.</w>
leku hlangan
ku we
j u</w>
in khosi,</w>
ik we</w>
er i</w>
e H
ci lo
beautiful ,</w>
L ele</w>
Ku khona</w>
4 )</w>
( 3)</w>
z ela</w>
z ane</w>
z am
vaka la</w>
va la</w>
uny e,</w>
um ntfwan
sh eni</w>
phel eni</w>
ng wa</w>
lu n
ku bete</w>
ho lela</w>
dza wo.</w>
cin ile</w>
bek et
ba tewu
a la
Vide o</w>
M bo
Label s:</w>
H ulumende</w>
E ma</w>
Cand leli
C ent
2 3</w>
-Ab raha
yis e,</w>
tj elwe</w>
ti ga
si ciniseko</w>
po liti
ph ela
lo kwaku
li cembu</w>
le kutsi</w>
labe ba
j iki
f t</w>
et we</w>
e !</w>
d )</w>
am u</w>
ak ekela</w>
Ngeli langa</w>
N ine</w>
A ba
ya lom
y ani
wem a</w>
w i</w>
tim o</w>
ti ya</w>
tali a</w>
sa kho,</w>
ph a.</w>
le N
kw eni</w>
ku ngenteka</w>
ku nem
khum ba</w>
hlan yel
hla bela</w>
fan ane</w>
em bili</w>
an ana</w>
a ye</w>
Ni yawu
Ngi cela</w>
ye s</w>
vumel ana</w>
phum elela</w>
p ar
ni kati</w>
nga ye</w>
ma langa</w>
m ak
li phi</w>
l enta</w>
kwa to</w>
ku yewu
ku te
ku lowo</w>
ka ngaka</w>
k i,</w>
hlon ish
esihla lweni</w>
dz ak
ca .</w>
Y ena</w>
Wa ba
W en
V isi
M hla
Lus tful</w>
Kh ulu
Kh u
Ju da
H ha
Ba be
A wu,</w>
A s
2 7
yaka -Israyeli,</w>
ya bo.</w>
y uka</w>
y eta</w>
wn loa
wa bo.</w>
v ang
tin hlitiyo</w>
thanda zo</w>
th i.</w>
te bantfu</w>
t ona</w>
si bo
phi la,</w>
phendvu la,</w>
le ka,</w>
ku sebentisa</w>
khoh lwa</w>
khe tse</w>
hh an
ha .</w>
gi dzi</w>
e hlan
e -ke</w>
W end
Nam e:</w>
A wu
“ Na
yaka Juda,</w>
tfum ba</w>
ta ma
suku ma</w>
r emu</w>
ngi funa</w>
lu khuni</w>
lo w</w>
lama khulu</w>
laba bi</w>
la b
kwe bantfu</w>
kuleli ve</w>
ku setjentiswa</w>
khu ba</w>
ent ele</w>
em bu
el is
ba wa
Kwa ba</w>
Ku ya
Bh ethi</w>
Bek a
Afri ka,</w>
yin cenye</w>
vumel wano</w>
um n
u ya</w>
u tfole</w>
tsi te.</w>
tsemb isa</w>
tsam ba
tam i,</w>
ri ya
nge sheya</w>
nga se</w>
lw ema
lung isa</w>
li mi</w>
le fan
in ika</w>
em tim
em ny
eGibhith e,</w>
dvu tane</w>
aketh e</w>
W e</w>
M and
Li tiko</w>
Khristu ,</w>
Davi de.</w>
1 6</w>
yent eka</w>
wa bo,</w>
tsin tsek
sin tfu</w>
si fo</w>
sebenti ,</w>
phe tfo</w>
ni ngi
li cinis
leku fanele</w>
ku lolu
ku khuluma</w>
ku hamba</w>
ku bo.</w>
er o
dza beni</w>
comm ents</w>
ban dzela</w>
a bo,</w>
W enta</w>
S onkhe</w>
S ho
P ar
L wandle</w>
Jero bowam
J une</w>
Ima ges</w>
D el
( c)</w>
we tfu
ph o,</w>
ona l</w>
ni bo
ngumu phi</w>
lo ve.</w>
le kumele</w>
la tsi:</w>
kam bu</w>
hawu k
h lele</w>
h l
de n</w>
ca ,</w>
be tfu</w>
ba phrofethi</w>
Y i
W el
R obe</w>
Nan obe</w>
N kulu
Lo d
F in
ya wo.</w>
tha ,</w>
t ri
sungu la</w>
sindz iso</w>
sebu khosi</w>
nga ba
letin tsatfu</w>
laph o.</w>
la ?</w>
ko tela</w>
kh ela</w>
in hloko</w>
hlalaka hle</w>
en si</w>
e ve</w>
dza ba.</w>
c u</w>
bin dzi</w>
an o</w>
Mo de
Lo ve</w>
Ema lahleni</w>
? ?</w>
1 9</w>
vun o</w>
tu lu
tj elwa</w>
thek s
sin i,</w>
r in
ngi si
ngeti khatsi</w>
kwe sikhatsi</w>
ku so</w>
ku sha
ku lem
h lwa</w>
am i,</w>
aka ,</w>
Si khatsi</w>
Hluhlu we</w>
yeku cala</w>
ya lo
wand le,</w>
wa vel
u bh
tj u
sa ti</w>
s wane</w>
s h</w>
ni .</w>
nga yi
nema dvodza</w>
lo yi
lis we</w>
ku va</w>
kho sikati</w>
khici ta</w>
im phi</w>
ge d</w>
en u,</w>
e tfu</w>
d uk
ci al</w>
ban jwa</w>
a bem
U ni
Khomish ani</w>
B eth
A N
yin dzawo</w>
y :</w>
um naka
tfu lu
tel angana</w>
seb entela</w>
ngum tsetfo</w>
ngu siphi</w>
nga lesikhatsi</w>
ng eta</w>
m ine
lwa mi</w>
lo li
lo kulu
lo ba
kini :</w>
ini ?</w>
i .”</w>
ema phu
dvwa ngu</w>
caba ngo</w>
L ela</w>
Ch ris
A ngel
3 :
wa buta</w>
wa ;</w>
uyawu ba</w>
tsa pp</w>
tfo lwa</w>
tf we
ta ba</w>
shuma yela</w>
ri ya.</w>
ph un
lw im
lw eni,</w>
lu hlobo</w>
loku fanele</w>
li la
la :</w>
khe ts
is e,</w>
ema nga</w>
bange t</w>
ba ze</w>
ba ta
ba kho,</w>
a f
S te
Le s</w>
Ba fundzi</w>
â €
wu la</w>
wnloa d</w>
we suka</w>
vum ele</w>
tsin i,</w>
tsa tfwe</w>
t ani
si na
phe tfwe</w>
pham ban
p ro
o ku</w>
na ngema
na leyo</w>
na len
lu tsandvo</w>
les bi
landz ele</w>
la yo</w>
kw enti
ko lo</w>
inya ma</w>
hla li</w>
goli de,</w>
dzabu la</w>
b ini</w>
a t</w>
W am
Ng el
Ne xt</w>
yem untfu,</w>
wa zi</w>
vam ise</w>
tsa tfu,</w>
tf wele</w>
te n</w>
so lom
sh es
se r
phe pho</w>
pha tse</w>
o :</w>
ngu yiphi</w>
ng iso</w>
nak an
na we,</w>
na la
kwent eke</w>
khomb isa,</w>
keti ng
is elwe</w>
hlo ,</w>
d ini</w>
bongo lo</w>
as ham
W il
Samu weli</w>
Ri pha
Na ti
B en
wam phendvula</w>
u ye
tin yatselo</w>
tin cwadzi</w>
t enta</w>
t ela
ngeti n</w>
lu laka</w>
lu hlelo</w>
laph a,</w>
ku ngen
kha mi
ke tawa
is ani</w>
e Jerusalema.</w>
bel ana</w>
bandz akan
a lo</w>
S ear
P ro
Ngu ye</w>
L amu
Jes u
G lobe</w>
4 0</w>
) ;</w>
y ente</w>
wa len
to s</w>
tin dvuna</w>
shi ye</w>
p er
ng ane</w>
m p
li te</w>
li ngani</w>
lasi hlanu</w>
lam u</w>
ku to
iny akeni</w>
hlo lwa</w>
eku gcineni</w>
da li</w>
cinisi le,</w>
ba bo,</w>
anananan anan
an ti
a kho,</w>
Ma ye,</w>
A ll</w>
A be</w>
2 ,</w>
wun i
wum be</w>
w or
u ngeke</w>
u nge
u la
tim e.</w>
sa bo</w>
s ona</w>
on khe
o r</w>
ngi yi
ngco lile</w>
ma ti</w>
ma khelwane</w>
la pho-ke</w>
kwa ko</w>
ku fika</w>
khumbu le</w>
is wa,</w>
i Ndvodzana</w>
esi d
er i,</w>
en yangeni</w>
ema ,</w>
c im
buk eka</w>
bu khosi</w>
bam bel
baka -Israyeli</w>
ba khuluma</w>
b li
a .”</w>
V eli
2 ]</w>
! !!</w>
“ Ni
um e</w>
uk i</w>
th ish
phohlo ngo</w>
ngi cela</w>
na leso</w>
lu dvumo</w>
laba ti
la kho.</w>
l iny
kanga ngekutsi</w>
hla zo</w>
fu te</w>
fu ngo</w>
enti ,</w>
em uk
bantfwan a.</w>
Um tsetfo</w>
Mar keting</w>
K res
2 6
yis we</w>
wen ya</w>
wa loku
vi e
tsetfo sisekelo</w>
so tja</w>
ph ek
o ?</w>
nge sekudla</w>
nga ku
nem untfu</w>
masin yan
lo kwe
li thempeli</w>
lebe yi
la Simakadze.</w>
k en
inik e</w>
i :</w>
i )</w>
ham ba,</w>
gwa co</w>
gco ba</w>
g )</w>
fundz eni</w>
fun e</w>
fi le,</w>
eGibhith e</w>
ba tfo</w>
ba sebenti</w>
a c
U tawu
Ng ako-ke,</w>
N ini</w>
N d
F ran
5 )</w>
! ’</w>
zulw ini</w>
yi le</w>
ye N
y be</w>
tful .</w>
sebenti si</w>
s s
o to</w>
ni tewu
ngo tsi</w>
ngc o</w>
na labanye</w>
lu tfo.</w>
l ente</w>
kun cono</w>
ku ngi
kh eli</w>
i ta
etj enti
emhlaben i.</w>
ba fike</w>
a bone</w>
Se ngi
N iketa</w>
Ma ye</w>
Life time</w>
Ku dla</w>
Jo wa
A ngeli
" Si
yem be
ye bantfu</w>
ye ;</w>
yak wati</w>
w .</w>
un i</w>
o ngo</w>
ng we</w>
na sa
masin yane</w>
li tawu
laba dzala</w>
la leli</w>
la g
kim i.</w>
khutsa ta</w>
i Jord
el elwa</w>
dzabu ko</w>
dv uku</w>
ban ika</w>
and le,</w>
La pho</w>
Isray eli</w>
Gibhith e.</w>
Emvak waloko</w>
Ban tfwana</w>
3 .</w>
1 .</w>
yis e.</w>
vim bela</w>
uya ku
uny enti</w>
tin ceku</w>
tim ende</w>
suku .</w>
ngen kem
ngaphin dze</w>
li zinga</w>
letin cane</w>
kwa yo</w>
ku -A
jez isa</w>
j ini</w>
i r</w>
g ca</w>
esiga beni</w>
er a</w>
ekha ya.</w>
c ke
be se
Unga yi
Ngi yaku
Ng ek
In take</w>
Ar oni</w>
vik eleka</w>
um nya
tsembek ile</w>
tful ,</w>
sim ini</w>
sa Velonkhe</w>
r and
phum phu
ph uny
ph elo</w>
nem isebenti</w>
lek ela</w>
kwe tfu</w>
kh ani</w>
imi buto</w>
i bha
hluken e.</w>
fu tsi
ema khaya</w>
dz ile</w>
bu yele</w>
bon khe.</w>
ba yaku
Y o
S ekela</w>
Nega tive</w>
N ya
Eti ket
“ M
yenti we</w>
u yin
u sho</w>
solom ane</w>
sh on
sa Simakadze</w>
ngi ngu
nga bona</w>
na ye,</w>
m eni</w>
lungis elela</w>
lo ngum
lo b
la gi
ing o
buk kake</w>
bambis ana</w>
b iso</w>
ak wati</w>
Ng eke</w>
Busi siwe</w>
Bha lo</w>
wa l
wa :</w>
w ha
vu .</w>
vi si
ut h</w>
um lilo</w>
u ka
ti we</w>
s wel
r i.</w>
phak em
p la
ngeku ya</w>
ngek wenta</w>
lo ng
lo ;</w>
len a
kutawu ba</w>
ku tje</w>
ka dze</w>
g en
fundz iso</w>
el eli</w>
buk ene</w>
bu ki
bu bi</w>
ba ngeke</w>
a sho</w>
Lom unye</w>
L y
K wenta</w>
In di
Gi be
ya bo,</w>
u hlala</w>
tion s</w>
tim isele</w>
ti tawu
shona langa</w>
phaka dze,</w>
omi ti</w>
ngum sebenti</w>
ngem li
ngeku shesha</w>
na Ma
lomu bi</w>
letin khulu</w>
leku cala</w>
l enti</w>
ku tfo
i kakhulu</w>
hlo ph
h we
h ulumend
h leni</w>
fu la
dv uma</w>
caba nge</w>
c uny
bu te</w>
aka la</w>
a tawu
Th i
Sa ra
S ta
Lo ngcwele</w>
Ch i
A ma
3 .
â€ ¢</w>
z a,</w>
wa ta
tj o
ti thico</w>
ti f
tfutfuk iswa</w>
te :</w>
sungu lwa</w>
suku ,</w>
si ne
sa yo</w>
ra l</w>
lish a</w>
lin i.</w>
li tfuba</w>
lasi khombisa</w>
khon te</w>
khe tfwe</w>
kanja lo-ke</w>
h lis
ema Juda</w>
ce nga</w>
S em
Len dvodza</w>
Ku sebentisa</w>
Jo wabe</w>
F aka
A dv
( feat.</w>
z o
ye sive</w>
wa di</w>
u yewu
u m</w>
u ca
tin yawo</w>
t uma</w>
t te</w>
o k</w>
ngel in
na sema
m es
len cane</w>
lek ile.</w>
le !</w>
la leli
khwa ma</w>
in dzima</w>
i ti
h lisa</w>
fu tsi.</w>
es uka</w>
es .</w>
ekuca leni</w>
e -A
dolobha .</w>
bu l
an dz
a yin
a khuluma</w>
Si busisiwe</w>
S er
Ne bukha
Jeremi ya</w>
ya to</w>
tin i,</w>
si bonelo</w>
s wati</w>
ni yi
ngulu be</w>
lung ele</w>
longuSom andla,</w>
longu Nkulunkulu</w>
loku nye</w>
les bo</w>
lamu hla.</w>
laba ku
la yi
kwa wo</w>
kwa kho.</w>
khami ti</w>
kh ele</w>
keta wa</w>
im e</w>
e tfu
e m</w>
e ."</w>
beautiful .</w>
a to</w>
a le
a hamba</w>
] [
Tim eline</w>
P la
Nebukha dne
Mowa bi</w>
M khandlu</w>
Kwa se</w>
Benga li</w>
A kusi
“ Kodvwa</w>
weku tsi</w>
un ye.</w>
u ng
tj i</w>
se ngatsi</w>
phosto li</w>
ngen eni</w>
nen dzawo</w>
ne t</w>
lwe si
li kha
le ngcwele</w>
kubha liwe</w>
ku hle</w>
j eni</w>
hlu kuny
hlan tek
get s</w>
fan ele.</w>
f i</w>
ema tfuba</w>
ema g
ehlu ko</w>
ca l</w>
N ani
Abo ut</w>
' .</w>
z ini</w>
we ti</w>
we ba
v uk
uneventful .</w>
um yalo</w>
um phristi</w>
um phefumulo</w>
r a,</w>
q aba</w>
ngek wa
nga- 200
n dlela</w>
lokungen ani</w>
li bhokisi</w>
lemi bili</w>
kwe fika</w>
kuphel a,</w>
ku vu
ku ma</w>
ku khala</w>
khomb isa.</w>
khi log
is elwa</w>
in o</w>
ho lesa
em lonyeni</w>
eli siwe</w>
ebu suku</w>
dza buka</w>
dvum ise</w>
dlel wane</w>
co m</w>
and le.</w>
an ti,</w>
ako ?</w>
a wa</w>
a fike</w>
Une ventful</w>
Tit le:</w>
P et
Makha dzi</w>
C ar
Bhenjam ini</w>
tsemb ele</w>
th ani,</w>
tfu lwa</w>
setjenti swe</w>
p ak
ngem pela</w>
nga la</w>
na mi
na Nkulunkulu</w>
lu sendvo</w>
lo :</w>
le ngu
lam ane</w>
l ,</w>
ku letin
ku be
hlaz ana</w>
ge t</w>
fan an
es t</w>
el ene</w>
ek went
con dvweni</w>
bu le
bha liswa</w>
an ce</w>
T e
Nebukhadne zar
N cwane</w>
L emi
Ar tic
00 0,</w>
“ Ba
yis eb
yea r</w>
ya wun
utawu ba</w>
u ngeli
ton dza</w>
t eni</w>
se -
p i</w>
ngi yo</w>
ngel im
ne ta
na ti</w>
n um
manga liso</w>
li ngana</w>
lema li</w>
la wa</w>
la ma</w>
kwem andla</w>
ku lo.</w>
khulu n
kh wen
is o.</w>
i phindze</w>
hlangabe tana</w>
hlam bulu
eth i,</w>
en g</w>
ela nga</w>
co ca</w>
bu ka,</w>
bhube si</w>
_ _</w>
Y ou
Ma ri
Buk kake</w>
wa velonkhe</w>
wa buyela</w>
um phristi,</w>
u ngaka
tsan dvwa</w>
ts e.</w>
to r</w>
tfuku tsela</w>
ta yi
t ch
si ba
sel oku</w>
se tsembiso</w>
sa ngo</w>
sa kho.</w>
phrofeth i,</w>
ngen yanga</w>
na li
m on
lesi ve</w>
ku sh
ku khanya</w>
ku bh
kho lwa,</w>
khilog remu</w>
in a,</w>
felo kati</w>
eth endeni</w>
d le
c iko</w>
a sha
Tag s:</w>
Sear ch</w>
Na ngi
Ma futsa</w>
In ter
Bek ati
2 :
za lwane,</w>
uya ba
u hambe</w>
ti hlahla</w>
si se
sek elwa</w>
sa tsi:</w>
ph im
ni tawu
ngel ini
mu ti</w>
ma nga</w>
ku fundza</w>
khu lisa</w>
khan yeti</w>
hhan ca</w>
ham bisa</w>
go g
ge za</w>
g h</w>
ema dolobheni</w>
em ak
d a,</w>
bhaka bh
bek ela</w>
ba khona</w>
b ham
am i
a ta
a khe.</w>
Um sebenti</w>
U tsi</w>
E sa
8 .</w>
5 :
-Am or
y we</w>
vim be
uk o</w>
theks thi</w>
tf on
sa ya</w>
ra .</w>
phon dvo</w>
ngek wesi
ng condvo</w>
ne bantfwa
nan je
na loko</w>
n u
lw ini</w>
lom sebenti</w>
lawu la</w>
ku tsatsa</w>
fundz ise</w>
esi te</w>
emhlaba tsini</w>
ema ve</w>
em ake</w>
condz ene</w>
cin a</w>
chu ba</w>
c un
bon wa</w>
ang el
ako ;</w>
U bo
T ra
F or
? '</w>
- nje</w>
( sib:</w>
yim fi
weku busa</w>
vivin yo</w>
un ina</w>
tin hlo
she she</w>
nema dvodzakati</w>
na so</w>
ly rics</w>
lo hlala</w>
lo ?</w>
lem inyenti</w>
ku laka
kh er
hla lesa
e dolobh
a ."</w>
a -ke</w>
S fiso</w>
Mtsetfo sisek
Ku lungile</w>
In dzawo</w>
Im isebenti</w>
201 7</w>
2 7</w>
“ Simakadze</w>
yin ye,</w>
wa phuma</w>
wa ngena</w>
tfu si</w>
tati on</w>
sh i.</w>
ngi ngetin</w>
ng isi</w>
nak enu</w>
n is
li lungelo</w>
letin e</w>
le tsi</w>
le ka
laba khulu</w>
kwa lom
kam bu
kakhulu kati</w>
is ako</w>
in tsandvo</w>
i ngi
fundz isi</w>
fun dza.</w>
fi hla</w>
eti keti
dv wa.</w>
d ,</w>
cu sa</w>
an eni</w>
Y onkhe</w>
Vang eli</w>
Tin tfo</w>
Simakadze .”</w>
Si celo</w>
La Maga
Jeho sha
Ham bani</w>
4 .
3 1
“ La
yin dlela</w>
tse tse</w>
ti lwimi</w>
thu la.</w>
te s</w>
so la</w>
phum elele</w>
phi lis
p )</w>
ngu kuphi</w>
nam i,</w>
loku faka</w>
lel e
kulu nga</w>
ku leso</w>
khe tfo</w>
kan to
in kemba</w>
i ngilosi</w>
hlo ni</w>
gwa c
e ban
cwan ingo</w>
Ma si
Le ar
Ek lenti</w>
Do wnload</w>
3 ,</w>
201 8</w>
ya laba
un em
um biko</w>
tim eline
sag t:</w>
re khodi</w>
phum ula</w>
ngi taku
ngcwel e
ne M
lindz ele</w>
li tsemba</w>
li f
le ."</w>
ku dla,</w>
khokh ela</w>
ham bela</w>
gcu gcu
fu tsi,</w>
fik ile</w>
ezulw ini</w>
etiketi :</w>
et te</w>
en ini</w>
ema veni</w>
dzingek ile</w>
dza buk
d lelo</w>
bhu li
bha lwa</w>
bh an
ba hlala</w>
ang um
Se wu
Leti sha</w>
6 .</w>
00 .</w>
‘ Naku</w>
yi N
we fika</w>
ti swa</w>
tfom bo
s ta</w>
s ani</w>
pho yis
o t</w>
njenga loku</w>
nge tim
ng s</w>
na bo.</w>
m er
lokum ele</w>
lam e</w>
kwe hlu
ku yo.</w>
ko ;</w>
khu le</w>
khe .”</w>
k ini.</w>
hlel wa</w>
fak i</w>
eti kwe
ch eme</w>
bula le</w>
bon isa</w>
bom ake</w>
bi ya</w>
bha ,</w>
be sito</w>
ak i
a ya</w>
Solom oni,</w>
Sawu la,</w>
N co
Mbo ngeni</w>
Ema -Israyeli</w>
Bekati '</w>
" M
yem a</w>
ya ?</w>
we ?</w>
waba phendvula</w>
wa bita</w>
usi c</w>
u ze</w>
tin ikela</w>
th er
ta si
si tewu
si ku
sh we</w>
sh an
seni ngizimu</w>
sa kho
nga bo</w>
ng oma</w>
nem hlaba</w>
li yawu
le tsite</w>
la lala</w>
kun iketa</w>
kulun kulu
ku kholwa</w>
ing eli
in dvuna</w>
i t</w>
hlangan weni</w>
et ulu,</w>
er esi
d on
d :</w>
bon khe,</w>
ba yo</w>
Th an
Ng in
Ng c
Lif eline</w>
L elo</w>
Ku yawu
E x
Ba r
A tsi</w>
ya lo,</w>
y ani</w>
vo ti</w>
vo ca
u ro
tin dlu</w>
thu la,</w>
ten u.</w>
ta l</w>
ph andle</w>
nya .</w>
nga-19 9
na ?</w>
lu tfo
lomu sha</w>
lom ntfwana</w>
li ve.</w>
li ve,</w>
leti se
leli dolobha</w>
le ka.</w>
ku phele</w>
j ana</w>
ge z
ga la</w>
ema Levi</w>
em inyakeni</w>
elu la</w>
dz ani</w>
do kotela</w>
co lis
bu dzala,</w>
ba phindze</w>
a kho
W eku
Ripha bhuli
Nkulu leko</w>
New s</w>
Lu ng
Hebher u</w>
2 9</w>
ti si</w>
tfomba tana</w>
ta tsi:</w>
pa si
nyaka .</w>
ny ele</w>
nom e-ke</w>
ngeli vi</w>
ngaloku phelele</w>
loko -ke</w>
li tsi:</w>
lesi khombisa</w>
le sem
ku lwa</w>
ku dla
kho sini,</w>
ka hle
in a.</w>
ik isa</w>
ekwent eni</w>
ba dze</w>
b isho
an dza</w>
a dv
Y em
W i
V er
Tsa tsa</w>
So uth</w>
S esi
Nkulunkulu ?</w>
Ngel ima</w>
N khulun
Ku ti
H I
Em an
.. ..
yem untfu</w>
ya so</w>
un g</w>
tsan dze</w>
tin sita</w>
thish ela</w>
t ma
sindz ise</w>
sikha shana</w>
si khundla</w>
s ento</w>
ro m</w>
ris ti</w>
phel elwa</w>
on aka
nik eta</w>
ngema dvodza</w>
neli ve</w>
na phakadze.</w>
na ,</w>
lu phawu</w>
lu ,</w>
lel ali
kweku cala</w>
kha muti</w>
iki tsi</w>
hlu ngu</w>
gam u</w>
en c
dli we</w>
c t</w>
buk ana</w>
bo nga
bh o</w>
ba nget
ba bo.</w>
a hambe</w>
V o
N on
Lusha wulo</w>
Li langa</w>
Li Bhayibheli</w>
Le vi,</w>
K ar
K am
In cwadzi</w>
Grea t</w>
G ali
yi wu
wen u
w om
um nyaka</w>
um ndeni</w>
uk elwa</w>
u fanana</w>
tuku lwan
tj we</w>
tfu tfum
tfolaka le</w>
ni ba
ngen ela</w>
ng ini</w>
nak ek
na letin
lolu ngile</w>
len dlela</w>
lama vi</w>
la ngi
la ko.</w>
l s</w>
ku letinye</w>
khulu le</w>
kho phi</w>
jabu lis
is weni</w>
im ba
gu bha</w>
ge :</w>
gci wane</w>
ga ti
emet elo</w>
Khulu ma</w>
Far o,</w>
6 0</w>
4 ,</w>
2 6</w>
. )</w>
we bu
v uny
uya yi
tsandz ako</w>
to :</w>
tin yo</w>
tam o</w>
t ento</w>
ngem u
ngem bili</w>
ng imi
lin i,</w>
le si</w>
laba bili</w>
la .”</w>
kwa bo.</w>
ku phi
ku njalo</w>
ku gcina</w>
imi phumela</w>
ho ra</w>
hla tsi</w>
ham ba
gh ts</w>
fi le.</w>
em li
bonaka lisa</w>
bi te</w>
aka Juda</w>
aka -Israyeli</w>
T eku
Sibo ngile</w>
S ik
N eku
Mand ela</w>
Jabu lani</w>
I D
H laba
F la
B ho
6 )</w>
4 .</w>
2 8</w>
-A roni</w>
( hel
yaka -Israyeli</w>
ya ba
ya Nkulunkulu,</w>
u to
tsembek i</w>
tj e,</w>
tfu li</w>
t wa
t enti
sim iso</w>
re s</w>
politi ki</w>
phel ela</w>
phawu lwe</w>
ngeli bito</w>
ng imi</w>
n ente</w>
lom fati</w>
lel ishumi</w>
le ngema
le h
lamu hla,</w>
l '
kulen dzawo</w>
ku ngena</w>
khokh elwa</w>
jabu le</w>
ham ba.</w>
emhlaben i,</w>
ema cembu</w>
dv wana</w>
cu lo</w>
be l</w>
U ngi
N en
In dzaba</w>
Candleli ght</w>
C u
5 .</w>
ye va</w>
wem ba
web u</w>
wand le.</w>
wa Velonkhe</w>
v an
uya m
tsintsek ako</w>
ti va</w>
ti fo</w>
tfu ka</w>
tel a,</w>
t om
sa mi
phu le</w>
p .</w>
nge phansi</w>
ngam unye</w>
le ngu-
ku tu
ku fun
kho lwa
ish ini</w>
i kakhulukati</w>
emtim beni</w>
elek i</w>
eku ngeneni</w>
dzi li
dim oni</w>
condz isa</w>
ca tion</w>
bh in
am e
a m</w>
S nake</w>
Ph ila
P ati
Nga tsi</w>
Nga se</w>
Nga phandle</w>
Nam e</w>
Far isi</w>
4 :
(hel p)</w>
yen a.</w>
um fundzi</w>
u tewu
tu kulu</w>
tim bili</w>
tem phi</w>
ta s
t elwe</w>
si si
phik isana</w>
nge kha
nge .</w>
nga leyo</w>
ma hha
lo funa</w>
li a</w>
kwam i.</w>
kuyewu fika</w>
ku thula</w>
ku Mosi,</w>
hluphek o</w>
hlan u,</w>
god lweni</w>
fan el
etin ya
etin hlitiyweni</w>
er e
ci tation</w>
bha lisa</w>
Simakadze ;</w>
Simakadze !</w>
Si riya</w>
Si gungu</w>
Ph risti</w>
Ph one</w>
Ly rics</w>
L ind
Gu ngu</w>
Emp ty</w>
Ema dvodza</w>
Ba be,</w>
B ona</w>
6 :
00 0.</w>
, '</w>
‘ Ngi
yon i.</w>
yel a,</w>
wa N
tin yo
sin usi
si vivinyo</w>
si tsa</w>
si ca
sesi fundza</w>
phel ele.</w>
phan dze</w>
ph ini</w>
netin dvuna</w>
ne bantfwana</w>
na lelo</w>
le bantfu</w>
le balulekile</w>
landz eli</w>
kwe sa
is wa
is on
hluk ile</w>
hle ka</w>
er s</w>
en hloko</w>
ema -Israyeli,</w>
ela ;</w>
e Bh
dz im
dv wala</w>
dv u</w>
cilo ngo</w>
bhubh ise</w>
b s</w>
V ele</w>
Lin ani</w>
Li ttle</w>
Kh uma
Is aka</w>
Bea u
A .</w>
3 2</w>
yase -Asi
ya bo
wun ti</w>
ti ngubo</w>
tem philo</w>
t -
si bili</w>
ngiz ange</w>
ngent eni</w>
ngema langa</w>
netin tfo</w>
n endlela</w>
lwe ti
lo nem
kwa loko,</w>
kwa kho,</w>
ka ti,</w>
gu gu
g an
es :</w>
er .</w>
en i?</w>
em philo</w>
em pha
em andla,</w>
cin e</w>
c .</w>
bhuj iswa</w>
a bo.</w>
a -
Veli ke</w>
Saba tha</w>
Lo k</w>
Je z
I sh
G ra
D lam
Be ngi
-E li
ye s
y aka</w>
weku shiswa</w>
we ta</w>
we bantfu</w>
wa beka</w>
vaka shi</w>
um lomo</w>
um e
uM tsetfo</w>
tu re</w>
ti ;</w>
sha do
sewu ya
nget andla</w>
ngekwem tsetfo</w>
nga ngi
nemi tsetfo</w>
na lama
na laban
lu nga
lish um
lis eb
lingan iso</w>
letin yenti.</w>
les s</w>
lemi tsatfu</w>
lali -1
la kho
la bem
l li
kunga bi</w>
kulu ngile</w>
ku yo,</w>
ku ne
ku Nkulunkulu.</w>
khulu ma,</w>
is wano</w>
in hlawulo</w>
hlo bene</w>
d u</w>
bula la.</w>
bomnaka bo</w>
ba phuma</w>
a tsa</w>
S ono</w>
R am
Ngi funa</w>
Lod ge</w>
Lamu hla</w>
L an
Ca se</w>
Bo bani</w>
7 .</w>
“A se</w>
z ine</w>
y ako</w>
we tfu.</w>
wa la
un ya
thanda z
sa li</w>
r e,</w>
phu pho</w>
phendvu le</w>
p o</w>
ngi le.</w>
ngem bi</w>
ngeku ti
ngan i,</w>
nga bo
lowa wu
li mi
le r
laba si
kwem tsetfo</w>
kun zi</w>
khi lom
ju ba</w>
j ulu
fu ga</w>
esiko lweni</w>
eh ho
dvodz ana,</w>
de r</w>
c ile</w>
bonaka le</w>
bon a.</w>
bi lini</w>
bi le,</w>
bek iwe</w>
bek i</w>
bek an
ba ke</w>
ba bona</w>
a yewu
a hlale</w>
Y en
Wa tch</w>
Um hlaba</w>
T sine</w>
Ma ha
M ak
Khumbu la</w>
I Nkhosi</w>
Besi to</w>
19 8
" ></w>
“ Naku</w>
yen u,</w>
ye tim
we M
w n</w>
vi li</w>
tsa ba,</w>
ti phi</w>
t eke</w>
sim ende</w>
san eminyaka</w>
sa Nkulunkulu</w>
pho fu</w>
ngu loku
nge tintfo</w>
nga lom
net aka
lo sa
li wayini</w>
li khaya</w>
len dlu</w>
leli tsi</w>
le ngaka
la ke</w>
ki tsi.</w>
kam pani</w>
im phahla</w>
hla ta</w>
gucuk e</w>
g cum
f eni</w>
eth a</w>
en tsabeni</w>
embikwa Simakadze</w>
em ba</w>
bula la,</w>
aku kafaneli</w>
ak i,</w>
S ham
N ani</w>
Mowa bi,</w>
E lisha</w>
Ale x
= "
yon khe.</w>
yak wenta</w>
wesi bili</w>
vik el
uneli lungelo</w>
u wu
u suke</w>
u khona</w>
tfo li</w>
si tsi</w>
se bantfu</w>
sa dze</w>
nje ngeti
ngu lomunye</w>
ng ,</w>
neba holi</w>
nd enini</w>
na ngen
na bo,</w>
na Sh
ma bili</w>
lo be
letisi khombisa</w>
le tawu
laba se
kw endlu
kum i
ku ni
ku nesi
khuph uka</w>
khulu mi</w>
khon tela</w>
kha ya.</w>
hla wu
gij im
gcwa la</w>
fan ako</w>
ema khono</w>
e Ma
dv wan
bha li
bh u</w>
beau cou
be hlu
a khona</w>
a hlala</w>
Ph e
Nco ngwane</w>
N u
M am
Let 's</w>
L ik
L eli</w>
J an
B y</w>
3 3
1 :
yis ensi</w>
wa to</w>
vu swa</w>
un ya</w>
um ela</w>
u fake</w>
tsan dzi</w>
ts aka</w>
tin kinga</w>
ti bu
si ni
si ngeke</w>
shi ci
sa se</w>
ngi tewu
ngek wen
nga si
nase tin
nan i,</w>
ma ga
lwa se
lungi le,</w>
lung u</w>
leya zar
leti ve</w>
len tfo</w>
le sen
lam u,</w>
la ko,</w>
ku wo.</w>
ku tsiwa</w>
ku nobe</w>
kho tsam
kho le</w>
kh u</w>
ka si
ka n</w>
ka la</w>
is e.</w>
go co
ent eka</w>
ek ani</w>
dzing i</w>
dzi li</w>
ci bisho
ba ngete</w>
ak ele</w>
a nga</w>
Ti tukulwane</w>
Nga loku
N khosi,</w>
K i
E f
zulw ini,</w>
z ulu,</w>
yeku ti
wa wo</w>
vum eli</w>
v ete</w>
v eli
v ami</w>
un u</w>
um bono</w>
tsamba ma</w>
ts ama</w>
ton khe.</w>
tj wala</w>
tin hlelo</w>
te ba
t ako.</w>
st ra
si la</w>
re e</w>
phi le.</w>
phi le,</w>
o d</w>
ngi .</w>
ngem lilo</w>
ngak wenta</w>
neku ti
neba fati</w>
n khosi</w>
lw andle</w>
li tje</w>
laba lungile</w>
la s
ku phindze</w>
kher ubh
j ika</w>
hlam bala
hla vu</w>
fu ,</w>
et e
esi s
eN tsabeni</w>
ca se</w>
bhidli ta</w>
Z ulu</w>
Tran s
N dvun
M eli
Le ban
Le a
Jona thani</w>
Hla nganani</w>
G en
F o
F aka</w>
yis em
ye dvwa</w>
yase Bhabhulona,</w>
ya loku
won khe,</w>
um bi</w>
tsa tfu
tj eni</w>
tim phawu</w>
ti ti
ti so</w>
ti n</w>
siti fiketi</w>
sin yane</w>
sem i
s oni</w>
phakam iso</w>
nje ngelu
ngis e
ngasem phumalanga</w>
ne sikhatsi</w>
nak ekela</w>
manga lis
ma tfupha</w>
ling isi</w>
li Bhayibheli</w>
lan i
lam i.</w>
laba sikati</w>
kwe -
k om
ju ga
im bi
gwe bo</w>
gun ya
ag e</w>
a so</w>
Sim one</w>
Ma fu
J ik
In hlitiyo</w>
I mali</w>
3 1</w>
ya ngi
we va</w>
ti ba
te -
tag ged</w>
si yi
se Mtsetfosisekelo</w>
phim bo</w>
pham bene</w>
ngeku sebentisa</w>
ng ina
na tsa</w>
n dvodzana</w>
lomu hle</w>
li ;</w>
ku tsini</w>
ku phuma</w>
kimi :</w>
kha lo</w>
kan e</w>
jiki j
is ango</w>
i ku
holesa le</w>
hlan ti</w>
fundz iswa</w>
fish i</w>
es on
ent eni</w>
ema Filisti</w>
em hlaba</w>
elek e
dza ba
cuke tfwe</w>
ch a</w>
c ingo</w>
buyis ele</w>
but tfu
boba bili</w>
ba lala</w>
b ikela</w>
a ...</w>
U M
So lo</w>
Res pon
Nkulunkulu ;</w>
Nga ti</w>
N el
Mi di
Le se
Ema il</w>
Da y</w>
Busi swa</w>
( tr
ya yo.</w>
wa ngete</w>
vu zo</w>
ton khe,</w>
tin hloko</w>
tim isela</w>
tfu le</w>
si hlalo</w>
si bu
sha yela</w>
seben ta.</w>
s m
phi lisa</w>
o l</w>
ngen hla</w>
m hlaka</w>
li fe</w>
len sha</w>
lelandzel ako</w>
lati -
la ck</w>
la ."</w>
kubalu lekile</w>
ku tsi,</w>
khish we</w>
k s</w>
k ele</w>
iseb enta</w>
in c
hlu ko</w>
hlo ko.</w>
hlek elele</w>
h eh
go go</w>
gi beli</w>
etin g</w>
es ,</w>
ema cala</w>
ema .</w>
el ako</w>
d isi</w>
co l
c isa</w>
buyis ana</w>
bum nyama</w>
bo khokho</w>
bh and
be fika</w>
b ela
akha wunti</w>
Web site:</w>
Tse tfo</w>
She kh
Lok elani</w>
Les bi
La ba</w>
Kuta isi</w>
I ngani</w>
Em anti</w>
C in
? .</w>
1 ,</w>
(tr g)</w>
ye ?</w>
we hlu
we :</w>
v i.</w>
v ama</w>
tseng iswa</w>
ts elwe</w>
titfu ck</w>
ti dzingo</w>
themp eli,</w>
tem tsetfo</w>
te tfu,</w>
tam e</w>
ta wa</w>
si zatfu</w>
salom u</w>
saka -Israyeli</w>
phrofeth a</w>
ngu lapho</w>
nga lesi
ng ente</w>
nem inikelo</w>
lo lwa
li ve
li ttle</w>
lel e,</w>
la tsi</w>
kwem anti</w>
ku tsin
khulu ng
khe ."</w>
kangak anan
i ngeke</w>
hlu shwa</w>
hlonish wa</w>
hlo se</w>
fun wa</w>
eti kweli
emny akeni</w>
ema siko</w>
em tsetfweni</w>
d leko</w>
cem bu
bi wa</w>
bha le</w>
bh eni</w>
bati sa</w>
base Ningizimu</w>
balek ela</w>
ba sho</w>
asham ed
abe nga
a yo
W ena
Seb entisa</w>
Se d
N ko
In dvodza</w>
I ngabe</w>
Ha da
E ng
8 )</w>
201 6</w>
-Ed om
went ela</w>
u le</w>
tungel eti
tu r
tj eli
tin cumo</w>
tam i.</w>
sha da</w>
sa ge</w>
p ri
ngi te</w>
ngen hlitiyo</w>
ngeku shes
ngc i</w>
n endlu</w>
m hlazana</w>
lona .</w>
len u</w>
le kwa
le fanele</w>
lasi tfupha</w>
la benta</w>
la -
ku cinisekisa</w>
ko ?</w>
khulu lek
imi tsi</w>
im phendvulo</w>
go dlo</w>
f in
ezulw ini,</w>
em phin
ek elo</w>
e S
dz eni,</w>
cha ze</w>
ch ele</w>
buk ela</w>
bu hle</w>
ba bili</w>
ash ley</w>
a phuma</w>
W an
Tj ela</w>
Sa bha</w>
Ph eresi
P e
Na yi
Manje -ke</w>
Lung elo</w>
Khen ani,</w>
Faka zi</w>
Em ehlo</w>
Dev elo
Bo ngani</w>
. "
ye s,</w>
y u</w>
wa vele</w>
ungu Nkulunkulu</w>
tse ngo</w>
tse nge</w>
tsaka tsaka</w>
tsa tsi</w>
tin suku</w>
tfu tfumela</w>
ta wo,</w>
ta khamiti</w>
t ham
su swa</w>
si tsi:</w>
si pho</w>
si ki
nga yo,</w>
nem philo</w>
neba ka
na H
na .</w>
mar keting</w>
lowe r</w>
loku sho</w>
lis u</w>
letin hle</w>
le vel
le fika</w>
kwa bo,</w>
ku hlakanipha</w>
kon khe,</w>
ki tsi,</w>
khe :</w>
kha ,</w>
ka banti</w>
ja ji</w>
hlu pha</w>
hla beni</w>
fu ba</w>
es s</w>
eku phi
dvon sa</w>
bu r
bu dzala</w>
ba ngena</w>
a ban
T fo
S A</w>
Jose fa,</w>
Hezeki ya</w>
G r
Da ma
“ Ndvodzana</w>
yi we</w>
yi hlo</w>
ya khuluma</w>
y iso</w>
wan i
w in
uya ti</w>
tungel eta</w>
tsi te,</w>
tfombo lusito</w>
tesiga nga</w>
ta mi
t elwa</w>
son o,</w>
se x</w>
res s</w>
phu zu</w>
phel a.</w>
nje nge</w>
ngu lesi
ngo tini</w>
netim phahla</w>
nen cenye</w>
neba se
li wa
lesi se
lesi hlanu</w>
leng th</w>
le M
laman cane</w>
labe talwa</w>
la lishumi</w>
kwa leli
ku ngum
ku loko</w>
kon zo</w>
khulu lekile</w>
jik elele</w>
im in
i te</w>
i ."</w>
hlukan iswa</w>
hloni pho</w>
hlo bo.</w>
hlo .</w>
hlangan iswa</w>
gcwa lise</w>
fik i</w>
f fi
ethemp el
endv u
end la
em be
eh lane</w>
dvo dza.</w>
dlo vu
can dza</w>
be ba</w>
ban e,</w>
aka .</w>
Um buso</w>
Ngu lapho-ke</w>
Mode kha
Bhabhulona .</w>
Afri ka
5 ,</w>
201 9</w>
00 ,</w>
y s</w>
u te
u s</w>
tsetf weni.</w>
ti co
te M
ta ngi
sa ta
p ake</w>
na lamanye</w>
loku bi,</w>
li li</w>
leti phakeme</w>
lekuhlangan a,</w>
lamu hla
kungaka pheli</w>
ku lo,</w>
ku khan
ku hlupheka</w>
j iswa</w>
in chazelo</w>
im u.</w>
hloni phe</w>
hlo li</w>
hlabel ela</w>
g re
fun dza
end a</w>
emphi lweni</w>
d y</w>
d lebe</w>
d lana</w>
ch anti</w>
buyis elwa</w>
bon kulunkulu
bi le.</w>
bi ;</w>
b ise</w>
an .</w>
Wa khuluma</w>
Visi t</w>
Si tawu
Les bo</w>
L im
Jer i
Is aka,</w>
Filis ti,</w>
Busi ness</w>
A sa
. com</w>
-A ma
( 4)</w>
ya si
wem i
tsi ?</w>
tsa nga</w>
ts ako</w>
sho ko</w>
seku cala</w>
saka ta</w>
p s</w>
ngaphin dzi</w>
ng wa
nen khosi</w>
nem ndeni</w>
nake d.</w>
lw eli
li va,</w>
le tfu</w>
le ngu-1
le ngcwele,</w>
laba funa</w>
la !</w>
kwe saba</w>
kwa lesi
kwa -
ku dla.</w>
khe tsela</w>
khash ana</w>
k lamo</w>
j ing
ish i</w>
ina l</w>
imo to</w>
ima g
i yawuba</w>
hlukuny etwa</w>
hlan u.</w>
h ,</w>
fe z
faka za</w>
em n
em andla.</w>
eku pheleni</w>
eb umnya
e fika</w>
dz elela</w>
bu tsa</w>
bo pha</w>
bhek ana</w>
be sive</w>
be nga
ak u</w>
a funa</w>
Wor ld</w>
Som andla</w>
Sed eki
Re ho
Q u
Na ku
Mana se</w>
M khonta</w>
Lo kunye</w>
Len ye</w>
Ku sh
K en
Etiket :</w>
C ho
7 0</w>
6 ,</w>
3 5</w>
3 2
( d)</w>
zu za</w>
ya Nkulunkulu.</w>
y eka</w>
x i
w eli,</w>
vik ele</w>
v is
uya ngi
u fika</w>
u fanele</w>
tayel ekile</w>
ta fute</w>
t ente</w>
sin ika</w>
si ti</w>
si on</w>
si bili
sent ence</w>
se x
ram u</w>
r t</w>
no ma
ni ye</w>
ngu loko</w>
ngem ehlo</w>
nem an
na Z
lu lu
low entiwa</w>
loku .</w>
leti ngema-
lesi hle</w>
lel isha</w>
le tfwa</w>
lah lwa</w>
la hli
kwem untfu</w>
ku vikela</w>
ku nekutsi</w>
kangak anani</w>
ji va</w>
jabu lela</w>
gij imi</w>
et o</w>
esi ve</w>
esi hle</w>
ema nga
dzi n</w>
day s</w>
ch e</w>
bum ba</w>
bu yek
bu ca
bo ngo</w>
bhu sayi
beautiful !</w>
be tin
be bu
ar tic
a tsatse</w>
a s</w>
a ngan
Wel come</w>
W in
Tin tfombi</w>
Sis wati</w>
Mp uma
M n
I ngilosi</w>
Gi de
Bha li</w>
Ash ley</w>
19 6
“ Unga
yo ;</w>
yi ngoti</w>
yawun g</w>
ya le</w>
wo ;</w>
w enti</w>
va lo</w>
v we</w>
v ukela</w>
um untfu.</w>
u khulume</w>
u bone</w>
tsel o.</w>
tjin tja</w>
tin e</w>
ti ve,</w>
tfun jwa</w>
si sa
si lwane</w>
sa loko</w>
r en
pho c
ngi bo</w>
ngeli tu
ng con
ng ca</w>
netim iso</w>
na lapho</w>
lolu nye</w>
lo ts
lo bo</w>
li lati</w>
li k
lelandzel ako:</w>
le ngcwele
l l
kum be</w>
khilom itha</w>
khatsa tek
ji nga</w>
im vula</w>
g ini</w>
fun dza,</w>
em o</w>
em ma
elu si</w>
eku sen
eGibhith e.</w>
dz elel
dz ele</w>
d er
cuke tse</w>
c elwa</w>
bo pho</w>
bhin ethi</w>
bh uku</w>
ben u,</w>
be va</w>
ba d
Si bon
S t
P er
Nga yawung</w>
N dvuna</w>
Ma sinyane</w>
A nga
3 9
-Af rika</w>
-A ha
- O
yel a
ya wo,</w>
y !</w>
wun ikela</w>
weli ve</w>
wa tfola</w>
wa lo</w>
voca vo
v ana</w>
um sindvo</w>
um hlatjelo</w>
tsetf we</w>
ti bon
th an
tal k</w>
ta si</w>
t ri</w>
t ele
s wa.</w>
s p
ngu liphi</w>
ngiya ti</w>
ngam ela</w>
nga le</w>
na ma
mun ye.</w>
m or
lom ncane</w>
loku n
loku landzelako:</w>
lo gwa
letin yenti,</w>
leti sem
let 's</w>
lelis etulu</w>
le bha
landzel ako.</w>
laba dvuna</w>
la te</w>
la ta</w>
la bel
la beku
l isho</w>
kwa bate</w>
j an
j a.</w>
j a,</w>
is etjenti
hlan yelwa</w>
ha ya</w>
elu leko</w>
da r
bantfwan a,</w>
ba ye</w>
ba cala</w>
angi ka
am i.</w>
a ti</w>
a kho.</w>
Si nga
Ph in
Ng emp
Nati onal</w>
Mtsetfo sivivinyo</w>
Mo si.</w>
Mhla wumbe</w>
M ba
Ku ngenteka</w>
Ku lesi
Ko ta</w>
Kan ye</w>
Dan yela</w>
: :</w>
: )</w>
3 4
yet !</w>
ya Simakadze,</w>
y om
wa Nkulunkulu.</w>
ve si</w>
u tsatse</w>
u fike</w>
tsi le</w>
tsel weni</w>
tim elin
th e
tfuny elwa</w>
tfum e</w>
si to
si hlahla</w>
si ;</w>
s un
nj ani?</w>
nj ani
ngesa bi,</w>
ngem anti</w>
mi lo</w>
lom dzala</w>
li ga
landz elwa</w>
l we.</w>
kwe tim
kw ela
ku tfutfukisa</w>
ku t</w>
khetsi we</w>
kan yek
ka khe</w>
i ta</w>
gc ini</w>
fo l
f ani</w>
eti kwen
esi n
en kantolo</w>
ema si
ehlan e,</w>
dlu la</w>
di a</w>
d s</w>
bho la</w>
bhaka bhaka
be t</w>
baka Juda</w>
am e</w>
akam elo</w>
Mo bile</w>
Ma sekela</w>
Le ngi
Joh an
H le
H ero
Em andla</w>
E va</w>
Ba phristi</w>
B on
5 0
3 ]</w>
20 20</w>
“N khosi,</w>
yi hlom
we tive</w>
wa ma
wa khu
u hlale</w>
tma s</w>
tin yembe
ti sa
th e,</w>
tfu pha.</w>
tem hlaba</w>
tak o,</w>
ta yo,</w>
ta dze</w>
t ru
shis wa,</w>
sha ywa</w>
sema -Israyeli.</w>
sema -Israyeli,</w>
r on
phu tsa</w>
phel ele,</w>
phe phile</w>
phaka ma</w>
ph es
nya ma,</w>
nya lo,</w>
ngi bona</w>
ngi ,</w>
ngem lomo</w>
neku thula</w>
nek wenta</w>
na we.</w>
lu be</w>
lon i</w>
lo tsi</w>
lingan isa</w>
li tha</w>
letin tsaba</w>
lan dza</w>
ku tem
ku ngani</w>
kon a.</w>
khom ban
ju li</w>
in yanga</w>
in khulumo</w>
imi hlatjelo</w>
i Ningizimu</w>
ho li
gi bele</w>
eni ;</w>
ema tje</w>
ele ;</w>
dvun a,</w>
di ya</w>
d lan
cel o.</w>
bhi dvo</w>
bel o
banj we</w>
ba to</w>
W U
T entile</w>
Swa tini</w>
Sim o</w>
Si kha
Sama riya</w>
P ic
Cha za</w>
Bek asi
8 ,</w>
201 3</w>
-Efray imu,</w>
yesi tsatfu</w>
yeM untfu</w>
ya lo.</w>
wa ye
wa Simakadze</w>
wa -E
v ela
uya ,</w>
um o
ti zatfu</w>
tel a.</w>
ta timende</w>
ta kho
sin o</w>
si fundza</w>
sha yeli</w>
sema khaya</w>
pham bili</w>
on s</w>
ni si
ni li
ngu yen</w>
ngema vi</w>
ngema dvodzana</w>
ngem uk
ngelu lwimi</w>
nge r</w>
nge phasi</w>
nen dvodza</w>
neku n
ne -A
m ini
lung i</w>
lo l
lo beka
li fomu</w>
letisi tfupha</w>
leti khona</w>
kwem hlaba</w>
kwa laba
ku ngeke</w>
ku lelinye</w>
khu khu
khan sela</w>
hluka hlukene</w>
ge zi</w>
ge tsi</w>
gcin wa</w>
ev er</w>
ema -Israyeli.</w>
em i</w>
el et
eku khan
e x
dlel eni</w>
da y</w>
bula we</w>
bha lela</w>
bha ja
bel ani</w>
bek ile</w>
be suka</w>
ba kho.</w>
ba k
a ye
a kube</w>
a dzimate</w>
Sim e
S ek
Po sitive</w>
P or
Ndvun an
Nam i
Na se</w>
N yalo</w>
Mahla lela</w>
Lo u
Li gama</w>
Le si</w>
La bo
L E
Kres tu</w>
K on
C ana
Artic le</w>
Afri can</w>
-Am oni,</w>
yis e
yet .</w>
yeku shiswa</w>
ya yo,</w>
wen a.</w>
um phrofethi</w>
um layeto</w>
um cashi</w>
u ngam
tsemb ela</w>
tin yoni</w>
tim ela</w>
ti ?</w>
ram u,</w>
on o
nyaka ,</w>
ngu yen
ngen i.</w>
ngeku m
nge b
neba phristi</w>
na sen
na loku</w>
mati ma.</w>
ma gama</w>
lu bisi</w>
longuSom andla</w>
lis e
li thende</w>
letin e
leti ngaka
leti h</w>
lenga ti</w>
le ce
laban ye.</w>
kwema langa</w>
kha .</w>
j e,</w>
ing condvo</w>
in khatimulo</w>
i nga</w>
hlo lisi
hlel we</w>
hlangan ise</w>
gu la.</w>
gi bela</w>
g g
f is
eti veni</w>
eth un
et leh
eman ti.</w>
ek am
eba leni</w>
e f
bu le</w>
ba zalwane</w>
ba funa</w>
b ra
b .</w>
Wha tsapp</w>
V an
T ik
T f
Si d
Nguyen ,</w>
Manje -ke,</w>
Lu hlelo</w>
Lem inye</w>
Lam anye</w>
Khen ani</w>
Jesusi to</w>
H ar
Ema lunga</w>
Eli ja</w>
E vang
Deligh tful
Caba nga.</w>
B ri
) :</w>
z ini
yet em
yen a,</w>
y ukela</w>
web site
we bhusayi
wa yo,</w>
wa so</w>
wa fa</w>
wa Ma
vim ba</w>
va lel
um untfu,</w>
um condvo</w>
u p
tungel ete</w>
ten u
s andleni</w>
r ama</w>
ngu tiphi</w>
nga leli
neti lwane</w>
mp 3</w>
lon dza</w>
lo ke</w>
lo ka</w>
li dze</w>
li chaza</w>
len cwadzi</w>
lam ba</w>
labe ngum
l inyenti</w>
kulu ngis
kulen ye</w>
kule to</w>
ku phela
ku khombisa</w>
ku M
khulu lwa</w>
khokh wa</w>
kha wu
ket s</w>
is ek
im ini</w>
hlu m
hla h
ham belana</w>
go go
gcin a.</w>
gam eko</w>
fundz ela</w>
f isha</w>
embu sweni</w>
el wa.</w>
el wa,</w>
e L
dlo va</w>
da vi
da ri</w>
ce ba</w>
ca shwa</w>
bu yeni</w>
bon hlobo</w>
ban yenti</w>
ba s
ba ko</w>
ba fanele</w>
ako ti</w>
abe ngum
Wil li
Ngu we</w>
Ma te
Lom u
Le tim
LaMaga gula</w>
Ku tawu
Ku hle</w>
K wan
Ish ma
201 5</w>
(i )</w>
z a.</w>
yin dvodza</w>
yesi bili</w>
yen si</w>
yen i.</w>
wesi fundza</w>
wa laba
w s</w>
uya ti
u yo
u cabanga</w>
tj ani</w>
tind leko</w>
tin tsaba</w>
ti :</w>
t 's</w>
su lwa</w>
sin g</w>
si khungo</w>
sa ngweni</w>
r obe</w>
r et
p ic
njengem untfu</w>
nik e</w>
ngi lo</w>
ngalen dlela</w>
nga loku</w>
ng wini</w>
ng .</w>
nema butfo</w>
nem timba</w>
nem anti</w>
na phakadze
na mu
m khulu</w>
lom sikati</w>
li gwa
li Vangeli</w>
letim bili,</w>
len khosi</w>
len dlu
laba yawu
la sa
kw ek
ku shiwo</w>
ku dzimate</w>
ku bonakala</w>
kon khe.</w>
ki le.</w>
ji we</w>
inya ngo</w>
il l</w>
en u.</w>
en khosini,</w>
dlel a,</w>
chaz ela</w>
bayawu ba</w>
ba wo</w>
ati on</w>
al l</w>
aka si
Ya tsi</w>
Um phristi</w>
U si
Phila tu</w>
Ng iko</w>
Na f
N ika</w>
Mo bili</w>
Ma riya</w>
Lom untfu</w>
Lom khulu</w>
L ama</w>
Ku bhala</w>
In tfo</w>
H el
H ea
Ba la</w>
3 6</w>
' t</w>
" Ni
yen i,</w>
yel inyenti</w>
we .”</w>
wa bulala</w>
vu ngu
vi v
uny u
ts elwa</w>
tjin tj
ti se</w>
sikha sh
si bonakaliso</w>
shi we</w>
sebent ako</w>
san dza</w>
sa i
s tfu</w>
phindz is
o p
nya ma.</w>
ngema lunga</w>
ngc weti</w>
nem usa</w>
neku m
nebu suku</w>
nan i.</w>
n anananananananan
li hlazo</w>
letisi hlanu</w>
leti n</w>
len ce</w>
le kahle</w>
la li</w>
l d
kw ele
ku khula</w>
khan uko</w>
kha si</w>
ke r</w>
k ak
in tfukutselo</w>
even tful</w>
ema th
em fuleni</w>
elo :</w>
eli lungelo</w>
ek wakh
eb isi</w>
dza wo,</w>
dz eni.</w>
cibisho lo</w>
chubek ela</w>
ca phela</w>
bu lula</w>
bon ya</w>
bo shwa</w>
bi la</w>
bek ele</w>
akusi yo</w>
aku siko</w>
aka dze</w>
a u
a kum
Wa chubeka</w>
Um oya</w>
S el
Ro se</w>
Pet uni
No ma
Nga kusasa</w>
Na we</w>
Ku ze</w>
Ku yini</w>
Ku lala</w>
Khe tsa</w>
Jeh u</w>
G re
F e
A ra
A na
3 5
.[ 2]</w>
“ Bu
yel low
ya lesi
we tim
wan ika</w>
wa s
wa ko.</w>
vu tsa</w>
vik elwa</w>
vakash ela</w>
usa ,</w>
u ba</w>
tsin tsana</w>
tsa tsa
ts eli</w>
tinhla vu,</w>
ti phatsimandla</w>
tha .</w>
tfu n</w>
te s
ta so</w>
t um
su kum
so lwa</w>
si ty</w>
si k
shi to</w>
sa len
rof ile</w>
phris ti.</w>
phi tsi
ph one</w>
ngetin yawo</w>
ngek weli
ngase se</w>
ng ako.</w>
m ntfwan
lo ngaka
lo kwent
li bhu
letim nandzi</w>
lesi nyenti</w>
length y</w>
lebe ti
l ent
l '</w>
kuli ma
ku khon
khom o,</w>
khici twa</w>
in tfombi</w>
imi bhalo</w>
im vumo</w>
i ba</w>
hla la
ezulw ini.</w>
esi fundzeni</w>
eng condvweni</w>
ema tsambo</w>
ema langeni</w>
em phaka
e Th
da ting</w>
cwa yiso</w>
cuny we</w>
cindz etela</w>
ce bo
bi ?</w>
babu yela</w>
a sem
S isa
N et
Mana se,</w>
M e</w>
Leli ve</w>
L eti</w>
Ku tsatsa</w>
J en
Ge or
8 0</w>
3 7
z ani</w>
ya dla</w>
vuny elwa</w>
uya si
um hlangano</w>
um ehluko</w>
u condze</w>
tukulwan eni</w>
tsa tsela</w>
tin zuzo</w>
tin i
ti cu
tfuku tselela</w>
tfo lak
te tfu
te l</w>
ta ?</w>
sondz ele</w>
si ya</w>
si hloko</w>
si dvumbu</w>
si d
sek elwe</w>
se ko</w>
sati so</w>
ra dze</w>
phuma langa,</w>
om o
nj ani.</w>
ni ngeke</w>
neku dla</w>
ne r</w>
na Bh
loku tsite</w>
lo kutsi</w>
li ma.</w>
leti tsite</w>
lesi dze.</w>
la ngu-1
kwen khosi</w>
kwe bu
kwe ba
ku teku
khulu leka</w>
khash ane,</w>
kha bi</w>
ka talia</w>
k ema
ine -ke</w>
hlalesa ngweni</w>
hlakani pha,</w>
hla sele</w>
gcin a,</w>
end lala</w>
en tini</w>
eku ti
e nga
dza ba,</w>
dla li</w>
d om
c ik
bhu ti</w>
bandlulu lo</w>
ba dla</w>
akan ye</w>
Wa tsatsa</w>
T ind
Seb enti</w>
Ngu bane</w>
Mahla tsi</w>
M on
Lu si
Lis ten</w>
Li ve
Lama dvodza</w>
Ku yenteka</w>
Ku ba</w>
Hlo la</w>
E uro
Bha sh
A bi
19 7
-Af ri
ñ i</w>
yon a.</w>
yin a</w>
yeku buyisana</w>
yaka tfo,</w>
ya li
ya lelo</w>
wo -ke</w>
we b</w>
wa s</w>
tsi ;</w>
tsandz ek
tsam o</w>
tfutfu ko</w>
ta wo.</w>
sti tu
si sho</w>
sha de</w>
ph esihle</w>
ngenkem ba,</w>
ngeku n
nge san
nge ba
nga we</w>
nesi gamu</w>
nema futsa</w>
neba ngani</w>
na sesi
na ngeti
mar keting
m ele</w>
lwa m
lungis elele</w>
lu suku</w>
lolu khulu</w>
loku nyenti</w>
lesbi ans</w>
lem iny
le beku
kulu ngisa</w>
ku yaku
ku wo,</w>
ku tj
ku sen
ku bamba</w>
ko ku
khu lile</w>
j o</w>
isa ;</w>
ining wano</w>
im phepho</w>
hlo ko,</w>
hlan e,</w>
hlakani pho</w>
hl andla</w>
h um
gel ebisi</w>
ge ze</w>
esi meni</w>
en hle</w>
en ce
ema r
ema hhashi</w>
em ndenini</w>
dzingek ako</w>
condz iswa</w>
cinis eka</w>
ci tfwa</w>
ch wa
ca laba
c et
bun j
bu tfo
bho sho
ban ikela</w>
ba ta</w>
a !</w>
T ube</w>
Sim oni</w>
S ina
R oma</w>
Ng an
Nebukhadnezar i,</w>
Na si</w>
N khosi
Lo tsa</w>
Jeremi ya,</w>
Develo p
D ani</w>
Ca la</w>
A li
8 :
“ Ngako-ke</w>
z e
yel a.</w>
wan ikela</w>
wa nga</w>
wa dzimate</w>
w entiwe</w>
un i,</w>
um tfwalo</w>
u s
tim is
tim ba.</w>
ti celo</w>
teku cala</w>
shu ca</w>
sh ima</w>
sa bo
pheph elo</w>
phakam ise</w>
pha ngo</w>
pa c
nje ngetin
ngi ya</w>
nge golide</w>
ng :</w>
m eli</w>
lo v
lin dzel
li phoyisa</w>
leng in
leli nga
kum untfu</w>
kon d
khomban dlela</w>
kha dze</w>
ka mi</w>
ja bh
im oya</w>
hlu kum
hlel weni</w>
h .</w>
ge r</w>
ga ga
g i,</w>
eti tseni</w>
er a,</w>
em iseb
em ini</w>
em in
ekwakh eni</w>
ekuf eni</w>
e dvute</w>
e Kha
di za</w>
di ya,</w>
d ja
busi se</w>
bhek ise</w>
bhek isa</w>
bhek ene</w>
be t
ba tfole</w>
ba hla
anga ba</w>
anan i,</w>
aku ka
V ente</w>
T ebu
S isebenti</w>
No wa</w>
Ng a</w>
Na si
L ine</w>
L eku
Kh esa
Isa ya</w>
I n</w>
Fi li
Dlam ini</w>
C e
C .</w>
B .</w>
A ben
-A d
z wa</w>
yet ono</w>
wa y
wa Nkulunkulu,</w>
w enti
umn iningwane</w>
u lala</w>
ti tfombe</w>
ti c</w>
tfum elela</w>
tfu si,</w>
tem a</w>
ta :</w>
t wako</w>
sim eni</w>
si tfola</w>
si phindze</w>
si khulu</w>
si gwebo</w>
seben ta,</w>
sa ve</w>
phen yo</w>
o ti</w>
nik etwa</w>
ni yaku
ngesi zatfu</w>
ngen i,</w>
ngem usa</w>
ng -
netin dlela</w>
nem sebenti</w>
nam i.</w>
na-A roni</w>
na ngesi
lwim i.</w>
lu hlolo</w>
lo s
lo lwe
lin i
li lo.</w>
li fe
leyazar e,</w>
lesi te</w>
le tsela</w>
le tem
lawu lwa</w>
laph a.</w>
lama bili.</w>
labe sa
laban cane</w>
laba ben
la dze</w>
kwa kho
kun zana</w>
ku yin
ku nge
khatsa teka</w>
ka tho</w>
ja lo,</w>
ish e
ing s</w>
ing c
imi cabango</w>
ik lamo</w>
i ngubo</w>
hlu buka</w>
hlo ko
hambis ane</w>
gco tj
gci z
gc eni</w>
fu ng
for ge
fa fa
esi phamban
esi godlweni</w>
embik we
el iswa</w>
dlel a.</w>
co ngweni</w>
chaz we</w>
ca sh
c we</w>
c and
ban i,</w>
ba yo
an dze</w>
a wo,</w>
U N
T ake</w>
S cho
Po s
N in
N ema
N R
Ma y</w>
Len a,</w>
La st</w>
La sha</w>
J i
H om
Gileya di</w>
A k
7 ,</w>
-Efray imu</w>
-Amor i,</w>
-A ra
‘ U
yem anti</w>
yel in
we sa
wam buta</w>
wa leli
wa khipha</w>
um ula</w>
um holi</w>
u dzinga</w>
tu .</w>
tsi we</w>
ti gaba</w>
tfun yelwe</w>
sindz isi</w>
si we,</w>
seben tini</w>
se sha</w>
se r</w>
sa id
phu tfum
ngek ek</w>
nga Moya</w>
neti hlobo</w>
nen e</w>
na M
mu va</w>
m hlaba</w>
luhla ta</w>
lu .</w>
longuSom andla.</w>
lom fana</w>
lo ve,</w>
lo si</w>
lo ngam
liphu nga</w>
lesi fo</w>
leli hle</w>
le ta</w>
labe hlala</w>
laba sha</w>
laba ngi
kweli thende</w>
ku khu
ku beka</w>
ku Jesu</w>
khona ;</w>
kha li
kan je
j ula</w>
isi le</w>
in chubo</w>
i ngu
hlo li
goli de.</w>
gca bha</w>
fa ri</w>
even tful
etin tsabeni</w>
etin dleleni</w>
ent :</w>
en khosi</w>
emvak weku
em nyango</w>
em isa</w>
elel e.</w>
ela ?</w>
cha we</w>
bon g</w>
bha lis
a vu
a va
a te
a ngizange</w>
a go
Z o
Z e
Wa phindze</w>
Vide o
U zi
S .</w>
Riphabhuli khi</w>
R ela
Nga lelinye</w>
Na bo
Ma s
La bani</w>
Ku visisa</w>
Jo b</w>
Jerobowam u,</w>
Bhenjam ini,</w>
B ro
B aka
3 8</w>
" Ng
z eni</w>
yem phi</w>
ye tfu
yase Si
ya ti
ya ...</w>
wan a
wa ?</w>
vum i</w>
uf ra
ubha le</w>
u yan
u l
ts :</w>
ton dz
ti gcili</w>
ti fi
su se</w>
sim bi,</w>
si ze</w>
si vuno</w>
si phel
she zi</w>
seku ba</w>
seba ll</w>
se wun
se ar
sam i.</w>
sabek ako</w>
s aka</w>
ngu labo</w>
ngi to</w>
ngema li</w>
ngema gama</w>
nge s
ngc ubu
ngc ikitsi</w>
ngam i.</w>
nga ye.</w>
ne saka
ndzawon ye,</w>
nan dzi,</w>
na wo.</w>
n dvodza</w>
ma ybe</w>
m is
m ents</w>
lu nga,</w>
li gugu</w>
lesi fanele</w>
lan dze</w>
lama dvuna</w>
laba ngcwele</w>
kwen u.</w>
kwa bo
ku lemi
khun i,</w>
ka ti.</w>
k i.</w>
in hlanyelo</w>
ik elwe</w>
i yin
i phuma</w>
hulumend e.</w>
hlom be</w>
go dz
fish ane</w>
eti we</w>
ema le</w>
ema bito</w>
el elwe</w>
e se
e .
dza wo
dvo lo</w>
dlel wano</w>
d is
condz iswe</w>
ci tse</w>
chi bi
chaz wa</w>
cam s</w>
bha da
beti ve,</w>
be s
bandzakan ya</w>
ba wu
b elwa</w>
an ako</w>
aku sho</w>
ako .”</w>
a tfole</w>
Yo u</w>
Y ufra
W un
W holesale</w>
Um fati</w>
Than k</w>
S i</w>
Ngu lowo</w>
Nd wand
Lin col
Li v
Jako be.</w>
In cenye</w>
Esi khundleni</w>
Del eting</w>
D is
C B
B om
A ng
3 D</w>
3 6
3 3</w>
-Am oni</w>
“ Mine</w>
yen u.</w>
wen i
wan eni</w>
walen si</w>
wa lang</w>
w ini,</w>
uta ku
um shado</w>
u ti</w>
tse tfom
ts h
tin khulungwane</w>
ti khulu</w>
ti ba</w>
tfulu lela</w>
sindz iswa</w>
sikha lo</w>
si fiso</w>
sema nga
ran d</w>
phu ya</w>
phel ani</w>
ni yewu
ni hambe</w>
ngem isebenti</w>
ngco la</w>
nga yinye</w>
nga lesinye</w>
ng weni,</w>
ng ci
neba fundzi</w>
ne simo</w>
nan dzi.</w>
nake d
n ana
mati si</w>
lu ts</w>
lu bondza</w>
lowa ke</w>
londvolo ta</w>
lona ,</w>
lom n
lolu hlelo</w>
lo ta
lo nesi
lo lo</w>
li nga</w>
letin ingi</w>
leti landzelako</w>
lesi tsatfu</w>
lengi nga
len inga
lel o
lekuhlangan a.</w>
le yon
le )</w>
la y
la ngetulu</w>
la ngema
kwen ta,</w>
kwa mi
ku hla
kh umu
kan ye
k in
imi timba</w>
hloph e,</w>
h leli
gu dla</w>
emet ele</w>
el wandle</w>
el untfu</w>
el isa</w>
cim bi</w>
ch we
c tion</w>
buk wa</w>
bi a</w>
be tse</w>
banga yi</w>
ba zalwane,</w>
ar y</w>
akek ele</w>
a tin
a te</w>
a ngene</w>
a ga
Z ebu
Ti ve</w>
Th e
Sen tim
Sam soni</w>
Sa do
M usic</w>
Len i
La w
Joshu wa,</w>
Jerobowam u</w>
Davi de
C webu</w>
Ba tali</w>
Angeli ka</w>
7 )</w>
-Abraha ma,</w>
yek wenta</w>
wema -
wela shwa</w>
video s</w>
ve ;</w>
v eli</w>
v ani</w>
um fula</w>
u hamba</w>
tsan dza,</w>
tsa tsele</w>
to ri
ti s</w>
tfu pha,</w>
tek wenta</w>
ta to.</w>
sim phiwe</w>
si hambe</w>
seni ngiz
sa tsi</w>
por n</w>
pho to</w>
phin dvwe</w>
ny e,</w>
ngu Simakadze.</w>
ngi ze</w>
ngi tani
ngi phindze</w>
ngeku tsi:</w>
ng on
nem tsetfo</w>
na tfo</w>
lolu m
loku khulu.</w>
loku bi.</w>
logwa ja</w>
lo ngen
lo bek
li langa,</w>
li la</w>
lesi celo</w>
le tsi:</w>
le ngcwele.</w>
langa bi</w>
landz isa</w>
lama tsatfu.</w>
lam i
la s</w>
la ngu
ku labanye</w>
khon ti</w>
kh ane</w>
kan cono</w>
k .</w>
jabu la,</w>
in khululeko</w>
hlu ka</w>
hlu buk
hlo biso</w>
ha wu,</w>
fik elwa</w>
esi ,</w>
es u</w>
embikwa Simakadze,</w>
em ukela</w>
em u,</w>
ekha ya,</w>
cinisek ise</w>
cinis o.</w>
ca leni</w>
c eku
c eb
bu ya
bu so
bhand e</w>
bha .</w>
beaucou p</w>
ba chubeka</w>
b ri
anga m
an khe</w>
am il
abu yele</w>
W eli
Ti c
She juli</w>
Sawu bona,</w>
Nkhulun khulu</w>
K ham
Ju li
Joh n</w>
Jez re
Hla ngan
H or
Ga di</w>
Ema il
?? ?</w>
9 0</w>
1 )</w>
-1 0</w>
" Kodvwa</w>
" Ba
! !
“ Wena</w>
yin dvuna</w>
wema -Israyeli</w>
w ekwe
utawu be</w>
uk e
u tsatsa</w>
tsetfom gomo</w>
ts et
to n</w>
tj e.</w>
tj ang
ti ts</w>
tfuny we</w>
tfu k
tase Ningizimu</w>
son tfo</w>
sin yatselo</w>
sin dza</w>
si yaku
si phetfo</w>
shis ekelo</w>
sh ik
se kwe
s we
phakem e,</w>
phaka tsi.</w>
ph ro
num zane</w>
ngi hambe</w>
nge n</w>
neli lungelo</w>
ne sa
na si</w>
ma ma</w>
ma lu
lom i</w>
lo nge
lo g</w>
lin dzela</w>
lima la</w>
li bandla</w>
lesi vumel
le te</w>
la yin
kwel ishumi</w>
ku pha
ko -ke</w>
khuph ukela</w>
khu ta</w>
khokh elo</w>
ka ti
jing e</w>
ish um
ing oma</w>
in kantolo</w>
hlo ngo
hlabel elo</w>
hambis ani</w>
h om
gucu lwa</w>
gu ca</w>
faka zela</w>
etim vu</w>
eni .”</w>
en simini</w>
e tsa</w>
dzi ngeke</w>
dv i
con o.</w>
coc isana</w>
co she</w>
bu dzala.</w>
bu be</w>
bu ban
bin dzi,</w>
bi twe</w>
bh eleke
ba ngaka
ba letsa</w>
ba leka</w>
b endlu</w>
asa m
a p
Wa tsi:</w>
Um usa</w>
Th imo
Ph u
Ph ak
Ng cobo</w>
M em
Len cwadzi</w>
L ema</w>
Kha le
I nj
Gi l
CB NR
Ab salomu</w>
3 4</w>
.. ...</w>
- -</w>
( i-
" Y
" Nangabe</w>
! '</w>
“ Y
“ Hamba</w>
yema khosi</w>
y ana
wema langa</w>
wel e.</w>
wase Ningizimu</w>
vin j
vie w</w>
uyi hlo</w>
unga ti
uk ile</w>
u vu
u ngen
u bona</w>
tu res</w>
tin khomo</w>
tfwa le</w>
ta lo,</w>
t ran
t !</w>
sim emetelo</w>
si tu
si ta.</w>
si lo</w>
si le,</w>
si bili.</w>
si :</w>
shi dze</w>
seli tulu</w>
seben tar
se wum
r ak
pa la</w>
p en
om ile</w>
o d
ngem phumelelo</w>
ngeku kholwa</w>
nem nikelo</w>
nem a</w>
na ye
m unye,</w>
luhla ngotsi</w>
lingan ako</w>
leku faka</w>
le yi
le goco
laman ti</w>
lahlek elwe</w>
laba yi
ku neti
ku kwenta</w>
ku dzingeka</w>
ku bita</w>
kon a,</w>
khun ju
khulum isana</w>
khi phela</w>
kam be</w>
jo ko</w>
in ombolo</w>
in fo</w>
in cwa
i la</w>
i f
hlu bu
hloph e.</w>
hlel i</w>
gco ba
fundzi si,</w>
fu la,</w>
fan ye</w>
en yet
en dzabeni</w>
embikwa Simakadze.</w>
eman tini</w>
ema phoyisa</w>
elu sen
el am
e fike</w>
dla le</w>
da li
d ev
d an
cuk u</w>
con o
cinis o,</w>
calek iso</w>
ca phele</w>
bhi zini
bhe dlela</w>
bha ca</w>
bh ula</w>
ben i
ba yewu
ba yam
ba ngan
ang ete</w>
ang ani</w>
abe nguyise</w>
You r</w>
WU A</w>
T es
T ar
S o</w>
Reho bowam
Ng im
Ndvunan khulu</w>
Les s</w>
La lelani</w>
L ele
Kun cono</w>
K went
Gileya di,</w>
F ine</w>
Em khatsini</w>
Ca pe</w>
C am
Afri ca</w>
; </li></w>
4 8</w>
“ Ngubani</w>
“ Nga
zi la</w>
yem tsetfo</w>
ye sintfu</w>
y ik
wha tsapp</w>
wesi tsatfu</w>
we r</w>
we hlela</w>
vi d
uti phi</w>
umbu si</w>
um hlaba,</w>
uk eleka</w>
u yak
tsi tsi</w>
tsa ma,</w>
tin hloso</w>
ti tfunywa</w>
ti fundvo</w>
tesi liva</w>
tem u</w>
tak went
ta w
ta lela</w>
ta hulumende</w>
si ve,</w>
si dzingo</w>
sh ela</w>
ri khu
r ,</w>
phumu la,</w>
phakem e.</w>
p ra
nik ela</w>
ngun ini</w>
ngu la
ngi la
ngesa bi</w>
ngen kemba</w>
ngem sebenti</w>
ngem oya</w>
ngem an
ngeku thula</w>
ngeku nga
ng ishi
neti tukulwane</w>
nema li</w>
ne w</w>
ne r
masinyan e.</w>
ma vi</w>
m hla
lungis elelo</w>
lu tfuli</w>
lu nga.</w>
lo kwentiwa</w>
lo gi
lis h</w>
licinis o.</w>
letin sha</w>
letim bi</w>
leti landzelako:</w>
leku nga
lece ngek
le gi
landz elwe</w>
la pho
kwem isebenti</w>
kwa lo</w>
ku vele</w>
ku vela</w>
ku lomunye</w>
khosi ni.</w>
kho lelwa</w>
jabu lile</w>
j e.</w>
in ter
i to
ho le</w>
hlangan iswe</w>
hha fu</w>
h ane</w>
gel eta</w>
gcin we</w>
fe za</w>
eti ko
emaga la</w>
ema viki</w>
em phini</w>
em godzini</w>
eku kho
ek e,</w>
e zingeni</w>
e "</w>
dvwe ba</w>
condz isi</w>
chubek ako</w>
bu dze</w>
bem a</w>
ba tfola</w>
a laba
Web site
Tfo la</w>
T ema
Som andla,</w>
Simakadze .’</w>
Sa ra</w>
Modekha yi</w>
Me ngam
Li lungelo</w>
Lesi a</w>
Len dzawo</w>
Ku setjentiswa</w>
Ku fundza</w>
K wentiwa</w>
Jowa be,</w>
Jik elele</w>
Ima ge</w>
I C
F eli
De f
Ch u
B er
Aku kho</w>
5 00</w>
4 0
‘ Nangabe</w>
ya wum
ya len
wen a
wel e,</w>
we teku
we hla</w>
wati sa</w>
wa sukuma</w>
vun yelwe</w>
ver sity</w>
v uke</w>
usi ta</w>
usa .</w>
tsi -ke</w>
tse tselela</w>
ts u
ti thic
ti ngilosi</w>
themp elini</w>
tfo lile</w>
temi dlalo</w>
teku n
ta to,</w>
ta r</w>
t ta</w>
t ro
sin dzi
si we.</w>
si tukulwane</w>
si ng
seti kwako</w>
se tfu</w>
se kum
sa so</w>
s elela</w>
s ...</w>
on line</w>
ngi tam
ngemli lo,</w>
ngema khilogremu</w>
ngasen shona
ngaph um
neti dzingo</w>
net em
mun tfu.</w>
lu nya
lom ntfwan
loku se
loku ngaka
lo lw
lo khuluma</w>
lo bo
limi ted</w>
leng ini
lek ile,</w>
la bo.</w>
l m
kwa len
kulom nyaka</w>
ku sha</w>
ku la</w>
ku hlangana</w>
khuba tek
khan dze</w>
jez iso</w>
j iswe</w>
is we.</w>
im p
i tful</w>
i fanana</w>
hlan e.</w>
ham be,</w>
g n
ev eni.</w>
etin tfweni</w>
ema sotja</w>
elu bon
ela tini</w>
ek e.</w>
e bha
e Ga
dv a</w>
de s</w>
d eli
com o</w>
bosh we</w>
bon i,</w>
bek etela</w>
be nginga
ba tsatsa</w>
ba hambe</w>
ba Nkulunkulu</w>
ba ;</w>
anga ti</w>
a wo.</w>
a ngena</w>
a i
a cala</w>
Y or
U ta
T el
T V</w>
Su bha
Si te</w>
Sh ano</w>
Se yi
S andla</w>
Nkulunkulu .”</w>
Nga we</w>
Na tela</w>
N e</w>
M A
Lo ma
Le m</w>
Ku faka</w>
Ku balulekile</w>
Emvak weku
B ak
3 9</w>
3 0.</w>
( A
“ Njengobe</w>
“ I
yase Ningizimu</w>
ya nga,</w>
ya -A
wa yo.</w>
wa sho</w>
wa gcina</w>
vam ile</w>
v isa</w>
uk isi</w>
u beke</w>
tsan dvo,</w>
tjo ki</w>
tim ele</w>
ti t
themp eli.</w>
tfo lwe</w>
tf li
tala dini</w>
ta wu</w>
ta -
t f</w>
t ?</w>
sin ye,</w>
sin a</w>
si khu
si fungo</w>
si cumbi</w>
sha dze</w>
setj ent
sem an
sek ele</w>
sebu khosi,</w>
se ngim
s ?</w>
q o
phrof et
ph o.</w>
ph ika</w>
ph ane</w>
ona -ke</w>
o k
nje ?</w>
ni ze</w>
ngu la</w>
ngin ika</w>
ngi yo
ngi ye
ngalo kwen
ngak wati</w>
nga- 201
ng '
nem fati</w>
nasem i
na-A bi
na ngeli
n endv
lu tawu
lo m</w>
li ma,</w>
li lo,</w>
len u,</w>
lema lunga</w>
leli k
leku hlangana</w>
le Nkhosi</w>
land lela</w>
laban ye,</w>
laba file</w>
kwem ukela</w>
kusuk e</w>
kum u
kum elana</w>
kubo nga</w>
ku tsa
ku tfolakala</w>
ku fanana</w>
ku fana</w>
kho lwa.</w>
kha la,</w>
ju lile</w>
jabu lise</w>
ind lebe</w>
in ani</w>
i ya,</w>
hu bhe</w>
hlangan o.</w>
h lengiwe</w>
gwe g
gebe ngu.</w>
fun isi
et u
er e</w>
en u
ema langa,</w>
em tini</w>
ek wenta</w>
ek e
ehho visi</w>
edolobh eni.</w>
ebu suku,</w>
ea n</w>
dvu ku
cke d</w>
ca r
bula lan
bu m</w>
bo lek
beli -1
bel et
bam i.</w>
bam ba.</w>
ba to
awu zange</w>
an isa</w>
aka ti</w>
a tsatsa</w>
Z i
T o</w>
T fu
Si hlalo</w>
S wati
Pr esid
Phalam end
Ngi ngeke</w>
Ng wenya</w>
N jabulo</w>
Mp 3</w>
Lu lwimi</w>
Level s</w>
La pho-ke</w>
Khuma lo</w>
K uma
Jona thani,</w>
Hezeki ya,</w>
Ha ga
Eku gcineni</w>
Chris tmas</w>
Besi tos</w>
B un
Au stra
9 ,</w>
9 )</w>
( 5)</w>
yon khe,</w>
yin ye.</w>
yin khosi.</w>
yeku sebenta</w>
ya ;</w>
wa tjela</w>
wa Je
wa -ke</w>
vun wa</w>
vimbe tela</w>
umbu to</w>
um vuzo</w>
um phrofethi,</w>
um ngani</w>
tsi se</w>
tsel o,</w>
tha t</w>
th anda</w>
tfoko ta</w>
ten khosi</w>
ta yo.</w>
ta lel
sin ye.</w>
sim u
sika ti,</w>
si ve.</w>
si hla
si ?</w>
sh ane</w>
se ngiya
se ngaka
phumphu tse</w>
phum ele</w>
pheli le</w>
pham bi</w>
on a,</w>
om ane</w>
ngulu phi</w>
ngu lom
ngiti j</w>
nget ulu.</w>
ngasen yakatfo</w>
ngaph andle.</w>
ngalo ko,</w>
nga to.</w>
nga lo.</w>
ng ine
nel wati</w>
neku nga
nake tfu</w>
ma m
loku ngu
lo wam
lo vel
lo kwenta</w>
lo ji</w>
lis o,</w>
li siko</w>
li langa.</w>
ley enta</w>
lete hlukene.</w>
lesi mo</w>
le g
lasi khombisa.</w>
lah a</w>
laba ngaka
la ti.</w>
kwem nyaka</w>
kwe M
kun ikela</w>
ku landzela</w>
ku lamanye</w>
ki nga.</w>
ki le,</w>
khun d
kherubh i</w>
kan cane.</w>
ka pani</w>
ik elwa</w>
i Jerusalema</w>
hlo tj
hlan julu
ha n</w>
gh tful</w>
fik ela</w>
fanel ekile</w>
fa ti.</w>
f ri
etim eni</w>
en kambu</w>
embikwa mi</w>
ema futsa</w>
em kha
em bhe
elel e,</w>
dzabu le</w>
dja bangayi</w>
d el
ci bili
calaba za</w>
buhlu ngu.</w>
bu so,</w>
bon e,</w>
boma khelwane</w>
bo bo</w>
bli c</w>
bhe dze</w>
bhakabh aka</w>
be tfu,</w>
balu leka</w>
ba so</w>
b emi
asi ka
ani ya,</w>
aba ka
a sen
a r</w>
a bona</w>
Wa djabangayi</w>
W hi
W es
T wente</w>
Son kondlo</w>
Si Swati</w>
S e</w>
P an
Ngc wele</w>
N j
Mpuma langa</w>
Mate wu</w>
M en
Lo setikwako</w>
Leni ngitij</w>
Lengi lu</w>
L ent
Kwe sta</w>
Khumbu lani</w>
In khundla</w>
Im philo</w>
H eb
F rom</w>
D ani
C an
Ba holi</w>
Ab im
. ?</w>
-Ed omu</w>
z im
yeli gunya</w>
yeku m
yase Bhabhulona</w>
ya phendvula</w>
wa ti,</w>
wa lala</w>
unga tsi</w>
um phakatsi</w>
um ane</w>
u tfola</w>
ts eke</w>
tikha li</w>
ti hla
ti bonakaliso</w>
tfo ba</w>
tfa tfa
tf wini</w>
taka yeku
son kondlo</w>
si tfombe</w>
si funa</w>
si busiso</w>
sentim itha</w>
sen u</w>
sel ele</w>
say s</w>
sa wu
sa sa</w>
sa :</w>
s wa,</w>
ri g
r un
phu nga</w>
phes enti</w>
ngi ye</w>
nge seku
ngapham bilini</w>
ngaloku fanele</w>
nga wo.</w>
net e
nem oya</w>
nem andla,</w>
ne .</w>
nalo yo</w>
na lolu
lon i,</w>
lom a</w>
loku hle,</w>
lo tsi:</w>
lo fanana</w>
lin dzi</w>
lin dza</w>
leti li-1
leti fanele</w>
len khulu,</w>
lelin cane</w>
le yawu
le phakeme</w>
lase Gibhithe.</w>
laman yenti.</w>
lama bili,</w>
laban yenti.</w>
labam phofu</w>
la to</w>
kwent ako</w>
kwe Mtsetfosisekelo</w>
kwa lo
kuca la,</w>
kh i,</w>
ke t</w>
ka p
isi we.</w>
ishi ba</w>
ini ;</w>
ing aka
in sindziso</w>
in si
imi tfombo</w>
i ba
hlan yelwe</w>
hlaba wonkhe</w>
hh h
gwa dla</w>
gc uma</w>
ga nga</w>
fu ngana</w>
ema su</w>
e va</w>
dvo dza
cum e</w>
co r
bu ti,</w>
bu dze,</w>
bha lele</w>
bh ema</w>
bh ak
beautiful ...</w>
ba te
ba hlale</w>
ba fana</w>
awu ka
anga ti
abe phetse</w>
a cedze</w>
a beke</w>
Z akha
V e
Th u
T am
T aka
Sin khole</w>
Se e</w>
S inya
Pha sika</w>
P ra
Ng utiphi</w>
Ng ema
N elisiwe</w>
Me ra
Man o
Ma yelana</w>
Lu suku</w>
Li dolobha</w>
Ku yawuba</w>
Jeho va,</w>
H an
Bha r
Ban tfwa
Alex and
( a
yu vesi</w>
yimfi ca</w>
wam emeta</w>
waloku tinhlavu</w>
wa nga-199
ve s</w>
uyawu be</w>
umnaka bo
u sha
u sebentise</w>
tse ngi</w>
tsa beni,</w>
ts o
tj wa
titfu ck
ti ca
ther n</w>
tfu lo</w>
tfu ck</w>
tek we
tek i</w>
ta khiwo</w>
su b
si so</w>
sa lo</w>
s ana
po ti</w>
phila ko,</w>
phi lo.</w>
phen ya</w>
phakan yiswa</w>
ph eka</w>
o t
nin e,</w>
ni ng
ngelin ani</w>
ngan i?</w>
nga sinye</w>
nga seningizimu</w>
nga mi</w>
nga lolu
ng e,</w>
ng ako
nema Levi</w>
naka tsi:</w>
n kulunkulu</w>
ly .</w>
lw ela</w>
lung ise</w>
lon eli
lom dvuna</w>
loku khulu,</w>
lo te</w>
li tsi</w>
leti phatselene</w>
leng im
lem inyaka</w>
le to
le nge
le n</w>
landzel a,</w>
labam nyama</w>
la ngu</w>
la calabaza</w>
kwe tfu
kwa phela</w>
kula lela</w>
kubh ema</w>
ku wu
ku so
ku phatfwa</w>
ku chaza</w>
ki tsi
khwe belet
khulu mi
khon eni</w>
khe tselo</w>
ka bili</w>
iny o
indza wo.</w>
imi buso</w>
iJord ane</w>
i we.</w>
hlu la</w>
hlo bo,</w>
h lw
h em
go dvo</w>
ga beni</w>
fi hlwa</w>
fi hlakalo</w>
f on
eth i.</w>
et ulu.</w>
eman ti,</w>
ema dvodzakati</w>
em gceni</w>
ekuphi leni</w>
ekha tsi,</w>
ek i.</w>
dzi ya</w>
dzi le,</w>
di z
d ik
condzi si
cindzet el
ci li</w>
busi swa</w>
bu so.</w>
bu khulu</w>
bomnaka bo,</w>
ban i.</w>
bambel ele</w>
ba yo,</w>
ayi ka
a hla
Wa ngi
U se</w>
Tim e</w>
T an
Siya bonga</w>
Simakadz e:</w>
S E
Ph o</w>
Ni bo
Na zar
Mo ya,</w>
Min e,</w>
M es
Lu tsandvo</w>
Lom fati</w>
L wati</w>
Jo sa
Ima g
G cwa
Filis ti.</w>
Bh eni</w>
A se
9 .</w>
yin dla
yi bona</w>
y eli.</w>
wen khosi</w>
w h
vu se</w>
vi l
un esi
ts .</w>
timelin e.</w>
ti tewu
tfutfu ka</w>
tem batfo</w>
t ...</w>
sika ti.</w>
si zi</w>
si yo</w>
si ye
sebenti sana</w>
r o,</w>
phi wa</w>
pham buk
ngu leyo</w>
ngu -A
ngco lisa</w>
neti phatsimandla</w>
nema zinyane</w>
ndza wo,</w>
nam e</w>
naku bo</w>
naka bona</w>
na- O
n on
n ing</w>
n .</w>
m bamba</w>
lo tsite</w>
lo hlakaniphile</w>
lo h
lo beku
lis a
lin g</w>
li ngene</w>
li li
let entiwe</w>
len dvuna</w>
lel ise
lel e.</w>
leku tsiwa</w>
le kwe
le d</w>
le colis
le bek
landzel ana</w>
labe nga
laba tawu
kwe hla</w>
kwa sho</w>
kunga tsi</w>
kun ike</w>
kulesi nye</w>
ku shi
ku jabula</w>
ku finyelela</w>
ku bhala</w>
khu hlane</w>
j un
isi liva</w>
ish u
is aka
in kholo</w>
iket ela</w>
i yi
i Si
hlom e</w>
hlaba tsi.</w>
ha ti</w>
fun dvo.</w>
faka z
f f
ema nga,</w>
em gwac
em bi</w>
em ba
elek i,</w>
el wati</w>
el ele
eb un
d a.</w>
cwa yisa</w>
cwa jana</w>
cece sh
bu ko</w>
bon isana</w>
bem e</w>
be sa</w>
bang elwa</w>
babu si</w>
ba ye
ani dze</w>
ang weni</w>
[ 1]</w>
Uni ted</w>
U n</w>
U funa</w>
T aku
T ak
Sinya tselo</w>
S eli
Ngi r
Ndwand we</w>
N or
Min enhle</w>
Ma ybe</w>
La wa</w>
L elu
Kun iketa</w>
Kha bhinethi</w>
Joh ane,</w>
Jo bs</w>
Je bhu
Hha wu,</w>
Esa wu</w>
Bho di</w>
Ab rama</w>
' a
" Unga
“A wu,</w>
zing eli
yen khosi</w>
yaka Juda</w>
y ā
weli zulu</w>
we N
wam eni</w>
vocavo ca</w>
viv iny
umka khe</w>
um bhalo</w>
ubu ke</w>
u sebenta</w>
u dle</w>
u Mtsetfosisekelo</w>
tsem a</w>
tsandzek ako,</w>
tsandz ako.</w>
ton a.</w>
tj on
ti v
ti lwan
ti k
ti fundza</w>
ta tsi</w>
t ta
t entela</w>
son dvo</w>
si fundvo</w>
sa les
ru lidze</w>
po siti
phumelel o.</w>
phel a,</w>
phef umula</w>
pa ce</w>
p angeli
o lo</w>
ngiyawu ba
ngi ngum
ngeti wu
ngen hloso</w>
ngema tje</w>
ngelu sen
ngeku bambisana</w>
ngati f
ngan i.</w>
nga letin
ng ela
nema khosi</w>
nan yalo</w>
naka bo</w>
na tsi,</w>
na to.</w>
na kunye</w>
n isa
me n</w>
longu e</w>
lon khe.</w>
lomu sho</w>
lo ni
lo l</w>
lo fanele</w>
li ta
li ngo</w>
li khono</w>
li hhovisi</w>
leti ngu-
leti lishumi</w>
len khulumo</w>
len khulu.</w>
lem in
leli wadi</w>
leli thempeli</w>
leli gama</w>
la yo,</w>
la p
kwa ya</w>
kwa kh
kusi gaba</w>
kun en
ku so.</w>
ku loku</w>
ku Davide,</w>
kho sa
kanje :</w>
jwa yel
in zuzo</w>
hluken e,</w>
hlu ma</w>
hle nga</w>
guc ukela</w>
gog eni</w>
ga be</w>
fun disi</w>
etinya weni</w>
emiseb entini</w>
emaphu tsa</w>
ema zinga</w>
em sh
eku tseni</w>
ek o
ej ele</w>
e ngi</w>
dz ini
da n</w>
cinisi le</w>
ch e
cece sho</w>
c to
c ansi</w>
bis ha
bi ya,</w>
bel ek
be saba</w>
ba yin
ase ngaka
ake kho</w>
ak went
a to
Yea r
Y ise</w>
Um ntfwana</w>
Tin dzaba</w>
Sh u
P ri
No ko,</w>
N o.</w>
Meli ka</w>
Ma tse
Ku tsi
Ku bona</w>
K wen
Isa kha
Im ininingwane</w>
Ema vi</w>
E ventful</w>
E nd
Dan yela,</w>
D om
Cha lle
Ba ru</w>
3 7</w>
201 2</w>
20 ,</w>
00 0
(i i)</w>
" Cha,</w>
“ Nkulunkulu</w>
ṭ ṭ
ye bo</w>
y ish
y endlu
wendlu la</w>
wel ela</w>
vi e</w>
va lelwe</w>
uya wum
um hlabatsi</w>
uk ete</w>
u faka</w>
tu ,</w>
tsin ta</w>
tsandz ekako</w>
tsan yeni</w>
tsa dze</w>
to p
tinyembe ti</w>
tim phendvulo</w>
tim ba
ti tsi:</w>
ti si
ti .”</w>
tful l</w>
tfo rd</w>
tfo lam
ta il
t un
se M
san kha</w>
saka Juda</w>
ra tion</w>
po s
phila ko.</w>
ngo dvo</w>
ngema bito</w>
ngcwa ba</w>
ngalo kwe
nga yo
nga lelinye</w>
na yo.</w>
mor e</w>
mhla wumbe</w>
mahha la</w>
lusi zi</w>
lum bi</w>
lu nye</w>
love !</w>
lo kwentiwe</w>
lin ye.</w>
lim o</w>
li bha
letim bili.</w>
leti ngu-1
leti balulekile</w>
lel eni</w>
le t</w>
lan em
la phuma</w>
la nge
la n</w>
la bek
la Nkulunkulu,</w>
kwema li</w>
kwa lowo</w>
ku ten
ku phendvula</w>
ku khipha</w>
king eli
khulum ela</w>
khi ya</w>
kha tsi.</w>
kha tsi,</w>
kem ba,</w>
ka mu
ka matima</w>
ka bi.</w>
jo vo</w>
jabu la.</w>
ja lo-ke</w>
in dvuku</w>
ima li.</w>
ima ges</w>
i tewu
i -A
hlukan is
hlasel a,</w>
gcwalis eka</w>
finy elel
fi ca</w>
eti ve</w>
eti kwem
ethempel ini,</w>
et ele</w>
esi khatsi</w>
esi buyeni</w>
ent ani</w>
emseben tini.</w>
emhlaba tsini.</w>
embik weli
elin ani</w>
el wandle,</w>
e Gibe
e -E
dvwa -ke</w>
d o,</w>
d am
ce s</w>
ce dzile</w>
busi sa,</w>
bon a
bo nga,</w>
bi si.</w>
belu si</w>
bel eka</w>
be ;</w>
ba tjela</w>
ba be,</w>
b enti</w>
awu ,</w>
an dza
a ngen
a khu
a bula
a Simakadze,</w>
Ye bo
Wa bu
T I
So ngs</w>
Sham bhala</w>
Sama riya,</w>
Saba tha,</w>
S iswa</w>
Ru beni</w>
P rofile</w>
P en
P A
Ngemp ela</w>
Nga lesikhatsi</w>
Ne g
N jalo</w>
Me di
Man ana</w>
Lesi n
Ku buta</w>
J am
In s
In dvodzana</w>
Im pela</w>
C O
4 4</w>
3 0,</w>
2 :</w>
( 199
“ Kute</w>
“ Cha,</w>
z ula</w>
z an
yini ?”</w>
yi hlo,</w>
ye tfu.</w>
yaka -Israyeli.</w>
ya ."</w>
y um
wa ko,</w>
wa dla</w>
wa H
um bhali</w>
uk elwe</w>
tse tse
tin hlangano</w>
ti phindze</w>
ti ku
tfu tsa</w>
tfomba tane</w>
tf wa.</w>
tf ile</w>
teku tsi</w>
te tfu.</w>
te sa
te ?</w>
ta laba
si ko
si khuluma</w>
shu walensi</w>
sel f
se ka</w>
se hlu
s s</w>
s ako.</w>
s '</w>
phu tfuma</w>
ph una</w>
ngum holi</w>
ngu wu
ngu Nkulunkulu,</w>
ngi wu
nget ulu,</w>
ngeku hamba</w>
ngeku ba</w>
ng cebo</w>
nemi ti</w>
neku phepha</w>
ndza wo.</w>
na we
mo to</w>
lw elu
lung ela</w>
luhla ka</w>
lo faka</w>
lim u</w>
licinis o,</w>
li cala.</w>
lengema- 4
len tisi</w>
lemi tsi</w>
leli j
landzel a.</w>
lama dolobha</w>
lam balwa</w>
laban i
laba ba
la le</w>
kwema lungelo</w>
kwa yo.</w>
kwa Nkulunkulu</w>
kw entile</w>
ku visisa</w>
ku netin
ku lala</w>
ku Khristu</w>
khi won
khe tsele</w>
kh ana</w>
k e.</w>
ju leni</w>
ish e</w>
is uka</w>
is h</w>
i ye
i m</w>
hlek isa</w>
hlangabe ta</w>
hla kele</w>
h im
gu la,</w>
gcugcu tela</w>
eti ng
et s</w>
esi godzini</w>
enti se</w>
emma ngweni</w>
emb isa</w>
em bili.</w>
eli gi
ekusen i,</w>
d d
cwa ñi</w>
co tfo,</w>
ca sha</w>
c eli
c e,</w>
c ak
busi ness</w>
buhlu ngu,</w>
bonaka lako</w>
bi sile</w>
bh on
beasi swa
baka -Israyeli,</w>
ba ngen
ba bone</w>
artic le
anananananan ana</w>
a khulume</w>
a bel
Um ndeni</w>
Ti tsa</w>
Sisa te</w>
Sh ime
S luts</w>
Nje ngoba</w>
Ngi nga
Na ye</w>
Na d
Mafu tsa.</w>
M ini
M er
Laban yenti</w>
Ku lom
Ku beka</w>
Khi pha</w>
Khen ani.</w>
K weku
Jehosha fati</w>
I F
Ge sh
D esi
Cent re</w>
Bha lamu</w>
Be wu
B el
B E
Aha bi</w>
20 0</w>
1 :</w>
- awa</w>
- ></w>
, "
“ Yebo,</w>
yon a,</w>
yet eku
ya yin
ya ma,</w>
ya kha</w>
ya -
wem untfu</w>
webhusayi thi</w>
we Nkhosi</w>
wa tch</w>
wa talwa</w>
wa shaya</w>
wa lom
wa khala</w>
vu sel
vel o.</w>
va lwa</w>
unga ngi
u hla
tseng wa</w>
tsaka tsaka
tj aneni</w>
tin cenye</w>
tfutfuk iseni</w>
tfu tfu</w>
tfon jeni</w>
tfomba tan
tem phakatsi</w>
t weni</w>
sikha la</w>
si tselo</w>
si gatjana</w>
shu sh
sewu ngi
seku sebenta</w>
se sa
sa yo,</w>
phendv uke</w>
ph eni</w>
p >
ngum timba</w>
ngu leti
ngi bo
ngema ve</w>
ngem nyaka.</w>
ngelu sendvo</w>
ngeku busa</w>
nge hlu
ngcwa tjwa</w>
nga seku
neti hlahla</w>
ne golide</w>
na ngenca</w>
na Jo
na Ja
ma y
m em
lwa khe.</w>
lusi to.</w>
lu gi
lo landzelako</w>
lo ban
li zulu</w>
li d
ley entiwa</w>
leti ngen
leti fana</w>
lelu hlata</w>
leli ve,</w>
le ngan
lama shumi</w>
la tion</w>
la laba
l we,</w>
l ...</w>
kwe Jord
kulesi khatsi</w>
kubalu leke</w>
kuba fundzi</w>
ku tsatfwe</w>
ku nema
ku chumana</w>
ku Mosi</w>
khwe sh
khumbu to</w>
khoh lwe</w>
khe tsi</w>
khe tfweni</w>
kha ya,</w>
ka zi</w>
ka mi
k omish
k eta</w>
j ele</w>
isi we,</w>
ingo ti</w>
i ngabe</w>
hloli sisa</w>
fun o</w>
fan a,</w>
etin d
eti sa</w>
esis wini</w>
endlel eni,</w>
emhlaba tsini,</w>
ema tubulo</w>
el eni,</w>
e g
e ...</w>
cuny wa</w>
con juga
ca ba</w>
c oma</w>
c ing
bu nga
bo bani</w>
bese -ke</w>
be st</w>
ban ike</w>
ban i?</w>
