a 21573
ku@@ 17154
b@@ 16940
em@@ 16832
i 16661
al@@ 16553
o 16362
L@@ 16327
ab@@ 16211
y@@ 16125
kutsi 15680
ng@@ 15164
um@@ 15024
el@@ 14810
t@@ 14627
l@@ 14605
N@@ 14179
ela 13607
n@@ 13510
S@@ 13462
ak@@ 12754
in@@ 12647
s@@ 12619
a, 12559
a. 12208
am@@ 12066
M@@ 11981
ang@@ 11792
ul@@ 11703
B@@ 11454
i@@ 11454
m@@ 11423
en@@ 11233
u@@ 11085
ele 11011
w@@ 11009
an@@ 10749
u 10743
e@@ 10675
kw@@ 10262
ay@@ 10219
il@@ 10157
im@@ 10121
a@@ 10096
isa 10093
k@@ 10057
et@@ 10055
is@@ 10037
ung@@ 9962
at@@ 9919
o. 9795
eni 9774
kh@@ 9769
si@@ 9706
o, 9645
e, 9536
e 9357
le@@ 9343
e. 9240
ing@@ 9237
wa 9217
- 9042
ala 8979
as@@ 8927
o@@ 8762
i, 8751
ini 8619
Ng@@ 8554
wa@@ 8497
T@@ 8469
lo@@ 8415
ani 8277
on@@ 8258
it@@ 8081
ek@@ 7987
lab@@ 7969
hl@@ 7847
ib@@ 7822
eku@@ 7712
ph@@ 7685
c@@ 7665
j@@ 7395
uy@@ 7329
f@@ 7285
aph@@ 7158
. 7144
ut@@ 6986
let@@ 6958
h@@ 6868
ik@@ 6840
K@@ 6829
aw@@ 6808
i. 6737
we 6716
un@@ 6688
esi@@ 6672
eng@@ 6621
ane 6549
ub@@ 6530
uk@@ 6442
kut@@ 6411
nem@@ 6410
akh@@ 6376
ana 6375
(@@ 6348
eb@@ 6337
kul@@ 6241
es@@ 6052
“@@ 6041
iy@@ 6009
kanye 6001
ile 5998
A@@ 5970
om@@ 5802
W@@ 5783
lesi@@ 5713
ats@@ 5649
aku@@ 5597
li@@ 5569
v@@ 5507
ic@@ 5473
elo 5444
"@@ 5443
ti@@ 5417
ema@@ 5353
: 5321
, 5296
us@@ 5280
ula 5272
g@@ 5241
eka 5205
kub@@ 5195
ati 5152
lel@@ 5112
aba 5093
ent@@ 5070
lam@@ 5011
Nkulunkulu 4994
H@@ 4982
d@@ 4959
loku@@ 4942
len@@ 4929
ts@@ 4919
tin@@ 4915
-@@ 4861
amb@@ 4840
D@@ 4789
z@@ 4770
eli 4761
ac@@ 4732
lom@@ 4706
ash@@ 4675
na@@ 4663
af@@ 4530
leng@@ 4518
iph@@ 4508
emb@@ 4493
be 4492
nal@@ 4476
u, 4452
futsi 4399
ngem@@ 4372
ol@@ 4352
ahl@@ 4349
weni 4331
uma 4312
ise 4301
ona 4245
sh@@ 4245
C@@ 4243
E@@ 4218
U@@ 4212
R@@ 4212
awu@@ 4196
eke 4188
av@@ 4156
ako 4145
uka 4142
neku@@ 4117
ag@@ 4112
ngobe 4089
ati@@ 4089
les@@ 4089
p@@ 4079
ob@@ 4058
Simakadze 4039
Y@@ 4034
dv@@ 4032
asi@@ 4017
alo 4013
khona 3982
ngeku@@ 3968
sit@@ 3950
iso 3905
eli@@ 3872
wal@@ 3838
ali 3820
tf@@ 3796
dl@@ 3788
wab@@ 3787
P@@ 3763
ar@@ 3741
enta 3740
I@@ 3698
J@@ 3677
yeku@@ 3660
any@@ 3659
uc@@ 3646
u. 3640
ihl@@ 3628
iny@@ 3622
iv@@ 3617
ish@@ 3611
atsi 3579
kuy@@ 3566
ama 3565
! 3558
dz@@ 3488
ig@@ 3465
if@@ 3416
atf@@ 3410
abo 3369
isi 3367
elwa 3363
ew@@ 3348
ad@@ 3335
watsi: 3323
kodvwa 3319
) 3309
etin@@ 3305
kung@@ 3288
ikh@@ 3264
ha@@ 3263
we@@ 3231
kwem@@ 3226
lem@@ 3210
G@@ 3202
uph@@ 3195
iswa 3195
aka@@ 3168
isi@@ 3162
bab@@ 3161
khul@@ 3152
? 3145
ngal@@ 3130
ye 3129
er@@ 3107
th@@ 3093
ngu@@ 3079
V@@ 3076
andz@@ 3060
Kh@@ 3058
Um@@ 3057
net@@ 3044
... 3038
eti@@ 3038
its@@ 3006
In@@ 3000
neb@@ 2970
'@@ 2970
nobe 2963
etf@@ 2957
uhl@@ 2955
r@@ 2951
usi@@ 2949
F@@ 2949
ne@@ 2912
Em@@ 2901
onkhe 2888
lw@@ 2882
anga 2808
umb@@ 2773
lol@@ 2763
njeng@@ 2759
nome 2747
kube 2740
bantfu 2730
kum@@ 2727
ot@@ 2724
abh@@ 2715
kun@@ 2707
3@@ 2679
yem@@ 2668
uny@@ 2661
a-@@ 2659
lapho 2655
; 2650
indz@@ 2633
ake 2627
Ph@@ 2576
abe 2575
nak@@ 2575
bay@@ 2574
yini 2573
ok@@ 2562
aka 2558
ale 2557
ase 2553
lob@@ 2552
si 2534
elwe 2532
kuph@@ 2523
inc@@ 2518
bang@@ 2515
andla 2513
seku@@ 2503
oni 2496
ah@@ 2491
Jesu 2489
ili 2481
dla 2470
ehl@@ 2469
wen@@ 2464
nang@@ 2459
be@@ 2446
ami 2428
az@@ 2406
dze 2401
ey@@ 2396
eta 2378
.@@ 2344
ika 2337
se@@ 2330
eny@@ 2313
ngiy@@ 2304
khulu 2294
Kodvwa 2292
sa@@ 2292
ong@@ 2289
Ku@@ 2282
leli@@ 2280
tim@@ 2272
kus@@ 2264
umuntfu 2255
4@@ 2242
s 2236
ike 2230
long@@ 2224
ve 2217
tem@@ 2217
awub@@ 2214
ine 2211
sin@@ 2210
ny@@ 2209
uts@@ 2206
ngul@@ 2205
to 2195
" 2185
kuze 2179
wane 2175
awo 2171
ya@@ 2163
eph@@ 2159
iya 2151
aya 2150
2@@ 2150
itf@@ 2149
ch@@ 2149
ile, 2145
la@@ 2144
usa 2144
umel@@ 2133
way@@ 2125
ema-@@ 2122
ed@@ 2119
sim@@ 2118
ente 2104
lal@@ 2085
kute 2084
loko 2081
ukh@@ 2081
low@@ 2075
tonkhe 2070
id@@ 2062
yin@@ 2051
letin@@ 2032
bo@@ 2016
imb@@ 2015
khosi 2012
atsa 2006
nje 2001
Bh@@ 1991
Im@@ 1977
bal@@ 1977
iwe 1968
Sh@@ 1968
ngum@@ 1967
sa 1961
adz@@ 1960
ih@@ 1959
lang@@ 1946
ene 1939
nel@@ 1939
antfu 1930
nas@@ 1922
ubh@@ 1905
beku@@ 1900
ug@@ 1894
ile. 1891
teku@@ 1890
wa, 1887
ant@@ 1885
bonkhe 1884
‘@@ 1879
5@@ 1877
obe 1877
wam@@ 1875
Simakadze, 1867
os@@ 1866
wat@@ 1866
ngit@@ 1856
and@@ 1855
sel@@ 1853
atj@@ 1852
gc@@ 1850
sib@@ 1843
e: 1834
kakhulu 1826
6@@ 1824
weku@@ 1821
kufanele 1816
kwal@@ 1815
bh@@ 1812
ley@@ 1809
wel@@ 1806
ete 1789
ono 1789
wan@@ 1787
bese 1779
yal@@ 1776
anc@@ 1774
an 1773
oko 1772
2 1767
ena 1758
fun@@ 1757
nesi@@ 1749
sem@@ 1748
ekw@@ 1744
wakh@@ 1742
ibh@@ 1739
kumele 1738
endv@@ 1735
bat@@ 1733
ulo 1725
ngel@@ 1717
dza 1712
e-@@ 1710
wa. 1695
sikhatsi 1694
Ab@@ 1689
tfo 1685
ako. 1683
andza 1674
web@@ 1666
nema@@ 1664
oy@@ 1658
le 1655
eni, 1650
ngabe 1648
ase@@ 1646
esh@@ 1646
ath@@ 1642
dvodzana 1640
olo 1640
' 1639
lon@@ 1632
unga 1631
konkhe 1631
hle 1624
uv@@ 1612
ela, 1608
1 1607
omb@@ 1606
e; 1601
ow@@ 1600
site 1595
si: 1594
a; 1589
indze 1587
7@@ 1583
kwent@@ 1579
ima 1579
anye 1575
endl@@ 1568
bakh@@ 1563
ev@@ 1560
or@@ 1549
oc@@ 1531
tit@@ 1530
asi 1530
emkhatsini 1527
umela 1527
ini, 1524
one 1522
kuv@@ 1520
bu@@ 1513
abi 1506
8@@ 1505
eti 1501
seb@@ 1495
elin@@ 1494
sikh@@ 1494
uta 1493
Ngiy@@ 1491
umsa 1485
eni. 1483
iko 1483
ez@@ 1482
tsetfo 1478
ap@@ 1476
se 1475
awuba 1474
sew@@ 1471
ekela 1470
Kut@@ 1468
uke 1467
tal@@ 1461
aj@@ 1459
ule 1455
netin@@ 1447
etsemb@@ 1444
i-@@ 1441
amba 1441
kuf@@ 1440
ij@@ 1438
hlaba 1436
wem@@ 1432
Th@@ 1431
Lab@@ 1429
es 1427
kukh@@ 1427
enc@@ 1427
Lo@@ 1424
Ngako 1422
iswe 1421
ela. 1421
a? 1419
ting@@ 1419
bon@@ 1418
ata 1417
njengobe 1416
in 1415
ir@@ 1414
yel@@ 1414
etfu 1412
Kul@@ 1412
iz@@ 1411
eleni 1410
ush@@ 1407
kahle 1405
ngen@@ 1404
elela 1396
Kw@@ 1389
3 1389
ako, 1386
anj@@ 1382
:@@ 1380
er 1377
bek@@ 1374
untfu 1373
utsi 1371
ini. 1366
,@@ 1366
nging@@ 1364
wati 1361
ipha 1354
utf@@ 1354
hlab@@ 1351
lil@@ 1349
ov@@ 1348
ita 1346
abul@@ 1345
imph@@ 1343
Ung@@ 1337
etim@@ 1336
wena 1333
kweku@@ 1332
khon@@ 1332
si, 1330
ema 1328
Z@@ 1326
ekh@@ 1319
end@@ 1319
akw@@ 1317
siy@@ 1316
en 1316
fan@@ 1315
ate 1311
sal@@ 1309
sive 1301
akhe 1297
ngas@@ 1296
inkhosi 1296
ngi@@ 1295
atsi: 1294
9@@ 1290
od@@ 1290
Lom@@ 1290
uf@@ 1288
inye 1287
akala 1286
ning@@ 1281
te 1279
akal@@ 1279
sing@@ 1278
t 1275
anti 1274
etsa 1274
lapha 1272
nj@@ 1272
nay@@ 1272
baph@@ 1271
lic@@ 1271
eg@@ 1264
yakhe 1263
noma 1263
akhul@@ 1261
awul@@ 1260
ef@@ 1259
k 1255
tj@@ 1252
umo 1250
uku 1248
ani, 1244
ukela 1243
lu@@ 1243
." 1240
love 1240
e? 1238
ina 1233
we. 1229
ume 1227
hh@@ 1225
fundz@@ 1224
wang@@ 1222
we, 1220
h 1219
con@@ 1218
ato 1217
ye@@ 1216
bas@@ 1215
unye 1213
Sib@@ 1212
O@@ 1206
ikela 1206
ngesikhatsi 1205
lov@@ 1205
emal@@ 1205
kwel@@ 1204
kuhl@@ 1204
enti 1201
ets@@ 1200
hamba 1199
labab@@ 1197
dzi 1193
.” 1190
isela 1189
ec@@ 1187
itsi 1186
sebenti 1183
endz@@ 1183
yen@@ 1181
etse 1178
y 1177
he 1176
ola 1174
ito 1171
ondz@@ 1170
alwa 1169
i? 1169
takh@@ 1168
seng@@ 1166
go@@ 1165
ket@@ 1164
ngekw@@ 1164
yonkhe 1163
tsi 1162
antf@@ 1160
yeb@@ 1160
hamb@@ 1157
khatsi 1156
ekhatsi 1155
kan@@ 1153
ngenca 1153
kuc@@ 1152
nen@@ 1142
Les@@ 1136
abo@@ 1133
Ar@@ 1133
sen@@ 1131
hlobo 1130
a: 1127
dlela 1126
ling@@ 1125
leting@@ 1124
ayo 1122
eth@@ 1119
isebenti 1118
ze 1114
loku 1109
0 1109
iya, 1098
5 1097
.. 1097
ngalo@@ 1096
wase 1095
watsi 1094
siv@@ 1092
utsi: 1092
g 1091
usi 1089
* 1086
uba 1086
nab@@ 1082
ha, 1080
n 1079
yet@@ 1078
nget@@ 1074
ya 1074
ind@@ 1072
1@@ 1071
kwenta 1070
itj@@ 1069
waph@@ 1069
ikw@@ 1066
hlo@@ 1066
live 1064
kwakh@@ 1063
niy@@ 1063
] 1062
ngekutsi 1058
sebent@@ 1057
-A@@ 1056
no@@ 1055
ango 1053
dvo 1052
et 1051
agc@@ 1048
wehl@@ 1046
khuluma 1045
Ngako-ke 1045
ambe 1044
Ngal@@ 1043
hlala 1040
nam@@ 1038
8 1035
Jes@@ 1035
isana 1033
yase@@ 1033
ngaphandle 1032
ekel@@ 1031
kepha 1030
_ 1029
ube 1029
labang@@ 1029
ba@@ 1025
andl@@ 1024
ahla 1023
embikw@@ 1023
Tin@@ 1022
kuts@@ 1021
4 1020
imi 1017
sita 1017
etulu 1014
leb@@ 1014
sesi@@ 1013
yakho 1009
yesi@@ 1009
eveni 1008
ami, 1007
liv@@ 1004
201@@ 1002
ta 1002
kantsi 1001
mine 1001
ngisho 1000
m 1000
lit@@ 1000
/@@ 999
emph@@ 999
sik@@ 998
Ngobe 996
ungelo 996
khokh@@ 993
ngesi@@ 993
p 992
entiwa 991
chub@@ 991
ele. 990
akho@@ 989
o: 989
til@@ 986
kwen@@ 984
hi@@ 983
sis@@ 983
0@@ 982
9 981
cal@@ 979
dvodza 977
tiy@@ 976
uye 972
kusho 971
yakh@@ 968
olwa 968
oma 964
uz@@ 963
ako@@ 963
emandla 962
ing 960
hloko 959
i; 958
Simakadze. 958
labo 958
ite 957
yena 957
bam@@ 956
ekile 954
naku@@ 953
7 951
ane, 950
funa 950
laph@@ 948
kwesi@@ 947
fol@@ 947
kho@@ 946
sakh@@ 946
ila 945
Len@@ 945
ele, 943
oni, 941
lin@@ 940
ngetin@@ 940
tintfo 938
?@@ 938
ute 937
.’ 937
hlang@@ 937
6 936
adze 935
beb@@ 934
ani@@ 932
dvuna 930
lakh@@ 929
ala, 929
[@@ 928
ongo 928
elele 928
las@@ 928
o; 926
batsi: 926
al 925
dzawo 923
nc@@ 920
umph@@ 917
ko 915
wakhe 914
fundza 913
lan@@ 911
asebent@@ 908
leku@@ 907
e! 906
Ang@@ 906
e.” 903
fut@@ 903
igc@@ 903
ngay@@ 902
babe 902
Lam@@ 901
wesi@@ 899
eM@@ 897
?” 897
ful@@ 896
19@@ 896
ini@@ 893
Lem@@ 893
haz@@ 892
Davide 892
Loku 889
phil@@ 888
col@@ 883
alanga 883
lok@@ 882
yami 882
alela 881
ulwa 881
siph@@ 881
Uy@@ 880
oli 880
-1@@ 879
lot@@ 879
min@@ 879
Nangabe 878
cala 878
la 876
ngaph@@ 876
si. 876
Uma 875
abang@@ 875
oya 874
kwa@@ 872
atse 872
eki 867
Lesi@@ 867
Nkulunkulu, 867
risti 866
Ch@@ 865
phak@@ 864
eli, 863
elani 862
eso 862
he@@ 862
nekutsi 862
and 860
fola 859
wele 858
nit@@ 858
baf@@ 855
yam@@ 854
ulu 854
Kung@@ 853
ati, 853
dzing@@ 850
awa 850
“N@@ 848
kuya 848
esab@@ 848
x@@ 847
oba 847
aze 846
akam@@ 846
osh@@ 846
de 845
akha 845
ende 844
ur@@ 841
An@@ 841
ala. 841
tel@@ 839
wakhuluma 839
nangabe 839
was@@ 838
Sim@@ 837
Kus@@ 837
wadzi 836
kuba 836
tsa 836
Afrika 834
” 833
ta@@ 833
aka-@@ 833
emag@@ 832
-ke 832
eku 831
ngeb@@ 831
esig@@ 831
ema-Israyeli 830
ange 830
fa 829
uya 827
sil@@ 825
elana 824
atim@@ 823
lowo 823
eme 823
ban@@ 820
ngib@@ 820
angan@@ 819
haw@@ 818
onkhe. 818
eN@@ 817
inyaka 816
fo 815
eh@@ 814
wala 813
enye 813
ang 811
fati 809
ten@@ 808
njalo 806
Kun@@ 806
a.” 806
jabul@@ 805
nine 804
ong 803
oti 803
ashi 803
o-ke 802
sic@@ 800
ro@@ 800
Kub@@ 799
awun@@ 798
nan@@ 797
isebent@@ 793
hlangan@@ 792
emakh@@ 791
kuye 790
indzawo 788
acala 787
Lel@@ 786
phi 784
had@@ 782
ane. 782
“Ng@@ 781
wet@@ 780
-E@@ 780
tiv@@ 779
kang@@ 778
una 776
etjentiswa 776
I 775
va 775
abal@@ 773
naw@@ 770
inyenti 767
naye 767
ia 767
indlela 766
lay@@ 766
je 764
tic@@ 762
ibe 762
the 762
anan@@ 762
ja 762
owo 760
akhuluma 759
isa. 758
hlol@@ 758
Ningizimu 755
kusukela 755
ahle 755
re@@ 754
fanele 753
ou@@ 751
ame 749
man@@ 748
khosi, 748
kulom@@ 748
tiny@@ 746
ke 746
nalab@@ 746
njani 745
uso 744
te@@ 744
asha 743
loy@@ 742
uva 742
awut@@ 741
asho 740
embu 740
angal@@ 739
Mosi 737
sebenta 737
uku@@ 736
emhlab@@ 734
nyaka 733
o? 733
lokub@@ 733
so 732
akho 732
abanga 730
ahamba 729
ehluk@@ 728
A 727
ese 726
emadvodza 724
inis@@ 723
Wena 719
inisek@@ 719
of@@ 718
yab@@ 717
uko 717
utfo 714
?" 712
bac@@ 712
akadz@@ 711
awo. 711
iket@@ 710
ith@@ 708
adv@@ 708
ents@@ 707
sig@@ 707
on 707
lesing@@ 706
ona, 704
emalanga 704
bantf@@ 704
Bo@@ 701
a! 701
el 699
enteka 698
/ 698
kab@@ 698
onkhe, 697
kwaku@@ 697
wonkhe 694
at 694
iN@@ 694
sonkhe 694
isho 693
uM@@ 693
cwele 692
elek@@ 691
Babe 691
etikw@@ 690
Kute 690
ula, 689
st@@ 687
20@@ 685
endzaweni 684
ulek@@ 684
ud@@ 684
co@@ 684
emba 683
kanj@@ 683
abeni 682
tab@@ 682
New 682
ahlala 682
lase@@ 681
lif@@ 681
Ema@@ 680
tif@@ 679
andzel@@ 678
l 677
set@@ 677
vel@@ 677
wami 677
a." 676
kush@@ 675
atsatsa 673
iki 672
wase@@ 672
ifan@@ 672
philo 671
bel@@ 670
Bantfu 670
bet@@ 669
Si@@ 669
ngendlela 668
akat@@ 667
kudla 666
uj@@ 665
ebent@@ 664
ati. 664
ukulwane 664
nik@@ 664
ungile 663
Mo@@ 662
kuphela 660
nikelo 660
esikhatsi 659
phansi 659
livi 658
hol@@ 657
anti@@ 656
nib@@ 656
utsa 656
elive 655
a-ke 654
e." 654
wac@@ 653
bul@@ 653
lig@@ 652
iphi 652
angeke 651
letimb@@ 651
ti 651
gcin@@ 651
takhe 650
nabo 650
Kuy@@ 650
lasi@@ 649
bona 648
Siy@@ 648
amu 647
As@@ 647
ambi 646
Un@@ 646
ha. 646
andzela 646
umsebenti 645
dzaba 645
kwaba 644
wakho 643
cono 643
le, 643
isa, 642
fika 642
awuph@@ 642
Am@@ 642
ntfwana 641
anyenti 640
is 639
sakhe 639
asa 639
bakhe 639
khombisa 638
Kepha 638
dvodz@@ 637
oph@@ 637
etinye 635
tive 631
atfu 630
timba 630
). 629
tabo 628
ebo 628
Cha 628
umbi 627
emuk@@ 627
akan@@ 627
yay@@ 627
Hl@@ 625
emac@@ 625
teb@@ 623
abona 622
b 622
sho 621
ulekile 621
onga 619
inhl@@ 619
uti 618
hlitiyo 618
awus@@ 618
anananan@@ 617
engam@@ 616
khona. 615
200@@ 615
Bab@@ 615
Watsi 614
isele 614
umele 614
wes@@ 613
umi 613
nges@@ 612
tiph@@ 612
ungu 612
beautiful@@ 611
ansi 611
anga, 609
kubo 609
tib@@ 608
oku 608
ku-@@ 607
hlahla 604
bey@@ 603
mo 602
gcina 601
lomunye 601
ngani 601
uleka 601
ani. 600
onkh@@ 600
Nkulunkulu. 600
ints@@ 600
e-ke 599
anga. 598
00@@ 598
tsetf@@ 598
Bek@@ 597
lag@@ 597
& 597
ip@@ 596
timph@@ 596
thi 596
Let@@ 596
kwekutsi 595
na 595
eliv@@ 595
weni. 595
isha 593
etela 592
lis@@ 592
ni@@ 591
afan@@ 591
Nak@@ 589
endvula 589
na-@@ 588
10@@ 587
kahl@@ 587
Kwatsi 585
ist@@ 584
kwet@@ 584
uhla 584
bem@@ 583
long 583
imali 581
tr@@ 581
Sam@@ 580
Som@@ 579
ifun@@ 578
ulwimi 577
faka 577
aso 577
ngin@@ 577
phela 577
atfwa 576
ungel@@ 576
kon@@ 575
ne 575
make 575
labanye 575
Li@@ 575
lib@@ 574
ulela 574
ich@@ 574
enga 574
ive 574
labeng@@ 574
awu 570
hlangano 569
ence 569
usito 568
lona 568
s: 568
Ning@@ 568
tfomb@@ 567
untf@@ 566
alam@@ 566
wenu 566
say@@ 565
ngema@@ 564
Fil@@ 564
ba 564
emad@@ 564
udz@@ 563
akub@@ 563
waba 562
letil@@ 562
endlini 561
Yini 561
May@@ 560
khos@@ 560
umelwane 560
awube 559
ation 559
wako 558
itha 557
lilanga 557
ngako 557
lat@@ 556
ibon@@ 556
inga 556
bes@@ 556
abula 556
etiny@@ 556
alo. 555
hlan@@ 555
azange 555
nalo@@ 554
ekako 554
asela 554
achubeka 554
sey@@ 553
cwel@@ 553
iNkhosi 552
ā@@ 551
anya 551
dvum@@ 550
Israyeli. 550
Mar@@ 550
kulab@@ 550
Lif@@ 550
endzawo 550
awo, 549
Beautiful 549
akwenta 549
ngek@@ 549
<li>@@ 548
Nguy@@ 548
’ 548
's 548
Simakadz@@ 548
ful 547
kakhulu. 547
Nguyen 547
ep@@ 545
eS@@ 545
ayi 545
upha 545
iwa 545
intfo 545
leti@@ 544
iminyaka 544
of 544
uli 544
vele 543
yatsi: 543
Mahl@@ 543
dvodzakati 542
d 542
iketa 541
wadz@@ 540
ach@@ 539
lokung@@ 539
ngemuva 539
lonkhe 538
Mine 538
angeni 538
Inkhosi 537
unevent@@ 537
usha 536
liph@@ 536
nat@@ 536
neti@@ 534
dlu 534
emaph@@ 534
eto 533
lokushiwo 533
lo. 533
Umuntfu 532
tinc@@ 532
ana, 532
aye 532
.[@@ 531
lweku@@ 531
omo 530
ngayo 530
andle 530
e) 530
itwa 530
ilanga 530
ole 529
timb@@ 529
uto 529
atsi@@ 529
odv@@ 529
ke, 528
letim@@ 528
ka@@ 527
emab@@ 527
unj@@ 527
ugc@@ 526
Far@@ 526
u; 525
eyo 525
Ts@@ 525
akazi 524
u? 524
kweb@@ 523
hlal@@ 522
beng@@ 522
andleni 521
akaniph@@ 521
nga@@ 520
q@@ 520
buso 519
lo, 519
ula. 519
khomb@@ 518
eni@@ 518
abeng@@ 518
ukul@@ 518
abon@@ 518
Lena 517
Khristu 517
ulw@@ 517
Jeh@@ 517
inkh@@ 516
condz@@ 516
leyay@@ 516
eline 516
ukw@@ 514
un 514
awum@@ 513
ekele 512
Is@@ 512
sakho 512
andla, 511
nguy@@ 511
Afrik@@ 511
hla 510
c 510
eva 510
buy@@ 510
afun@@ 509
tikh@@ 509
libito 508
apha 508
Gibhith@@ 508
Aw@@ 508
x 507
Nat@@ 507
une 507
kam@@ 506
ngis@@ 506
weni, 506
hal@@ 506
op@@ 506
khun@@ 505
Website 504
ink@@ 503
elel@@ 503
leling@@ 503
!@@ 503
khulum@@ 503
Lev@@ 502
ngim@@ 502
ed 501
do@@ 501
Beautif@@ 500
andaz@@ 500
emas@@ 499
imate 498
efika 498
entiwe 498
antfwana 498
Lib@@ 498
indza 498
.' 498
abo, 497
icin@@ 497
oli@@ 497
uni 497
Del@@ 497
akhulu 497
bahl@@ 496
phila 495
ka 495
i: 495
qu@@ 495
takho 495
tet@@ 495
Man@@ 494
etfu, 493
nes@@ 493
ungis@@ 493
letis@@ 492
khulu, 492
longu@@ 491
ari 491
goli@@ 491
to@@ 491
ana. 491
as 490
tas@@ 490
njengem@@ 489
lokw@@ 489
liy@@ 489
atsi. 488
tsetfosisekelo 488
andze 487
yami, 487
yes@@ 487
letit@@ 486
Ngit@@ 486
r 486
bah@@ 486
ekhaya 486
andv@@ 485
"N@@ 485
Sit@@ 484
likh@@ 484
iw@@ 484
lakhe 484
“ 484
ngil@@ 483
zi 483
lesit@@ 483
olobha 482
oka 482
iva 482
Make 481
base@@ 480
Ngem@@ 480
!” 480
Bhabhul@@ 480
nani 480
fanana 479
ben@@ 478
etsel@@ 478
mas@@ 478
sicelo 478
haza 478
hlanu 477
waf@@ 477
do 476
sek@@ 476
iningwane 476
tful 476
me 476
ifuna 475
leyo 475
aka-Israyeli 475
Al@@ 475
aphindze 475
usho 475
esha 474
le. 474
zuz@@ 474
nandz@@ 473
emanti 472
lim@@ 472
uhle 471
inik@@ 471
aweni 471
ar 471
uyela 470
tat@@ 470
tis@@ 469
sebentisa 469
Tim@@ 469
imib@@ 469
etfwe 468
Leng@@ 468
imisebenti 468
Nkulunkul@@ 468
ondza 467
iphe 467
Simphiwe 466
Loko 466
awula 466
lesiv@@ 466
yabo 465
ma 465
akhona 465
eli. 465
tfu 464
angana 464
ku 464
kwakhe 463
emadvodzana 463
rofethi 462
Tit@@ 462
abes@@ 462
abet@@ 461
labal@@ 461
Kufanele 461
sha 460
St@@ 460
isisa 460
Bonkhe 459
Jose@@ 459
eleka 459
a) 458
lilo 458
est@@ 457
ndeni 457
utj@@ 456
bi@@ 456
ngetulu 456
weli@@ 455
dlo 455
aki 455
ho@@ 455
iti 454
law@@ 454
icela 454
Beasiswa 453
tig@@ 453
apho 452
hluph@@ 452
esiv@@ 452
laba 451
sam@@ 450
eko 450
bamb@@ 450
ebh@@ 450
ra@@ 449
Juda 448
Joh@@ 448
akaJud@@ 448
Lus@@ 447
yas@@ 447
lus@@ 446
uhlelo 446
neli@@ 446
ni 446
Jerusalema 446
u-@@ 446
khulu. 445
nase@@ 445
letib@@ 444
umtsetfo 444
ubi 444
ungo 444
anisa 443
ilosi 443
engc@@ 443
atsi, 443
igh@@ 442
wano 442
...@@ 441
ankh@@ 441
Mas@@ 441
anyela 441
% 441
nami 440
avi 440
yakhe, 440
indvodza 440
entela 440
a... 440
bian 440
ekuph@@ 440
letisi@@ 439
udv@@ 439
ntfwan@@ 438
ona. 438
hlob@@ 438
wenta 438
> 438
uw@@ 437
tam@@ 437
emv@@ 436
ulala 436
ishumi 436
etindz@@ 435
kuyo 435
kim@@ 435
etjent@@ 435
aka, 435
wand@@ 435
Nang@@ 434
rofeth@@ 433
sitf@@ 433
elil@@ 433
akhosi 432
dle 432
Israyeli 431
kantolo 431
sandla 431
efum@@ 430
Ngeku@@ 430
alo, 428
ngam@@ 428
hlitiy@@ 428
ota 428
bo 428
phan@@ 428
ali@@ 427
khash@@ 427
ngeli@@ 427
Ngabe 427
Ngubani 427
tsatfu 426
uyawu@@ 426
ti, 426
kakhulu, 426
itsetfo 426
laban@@ 426
uleko 425
kimi 425
nase 424
alel@@ 422
sits@@ 422
sang@@ 422
endlela 421
endlu 421
ngelilanga 420
andvo 420
lelis@@ 420
angani 419
</li> 418
alele 418
inyane 418
Tag@@ 418
los@@ 417
Solom@@ 417
intj@@ 417
omu 417
ukut@@ 417
ema-Israyeli, 415
Moya 415
umba 415
edv@@ 415
i.” 415
use 414
etive 414
tase@@ 414
La@@ 414
hlon@@ 414
akadze 413
letiph@@ 413
iti@@ 413
kulesi@@ 413
langa 412
umny@@ 412
wana 412
futf@@ 411
udl@@ 411
amp@@ 411
bili 410
edz@@ 410
No 410
akwati 410
ma@@ 410
imv@@ 409
esi 409
itsa 408
shay@@ 407
lomo 407
am 407
ris@@ 407
andla. 406
199@@ 406
waw@@ 406
khatsini 406
Sig@@ 406
enti@@ 406
wakhe, 405
kubh@@ 405
esaba 403
Ak@@ 403
angel@@ 403
Nan@@ 403
etj@@ 402
gr@@ 402
bus@@ 401
sent@@ 401
wane, 401
condvo 401
waya 400
sab@@ 400
bantfwana 400
munye 399
bhal@@ 399
Ngul@@ 399
20 399
bav@@ 399
Gibhithe 399
dla, 399
thula 398
Bhayibh@@ 398
lokut@@ 397
loph@@ 397
uphi 397
kulunkul@@ 397
thic@@ 397
fole 396
est 396
siwe 396
yakho, 395
eka. 395
alo@@ 395
ekelwa 394
Fun@@ 394
futfuk@@ 394
phakatsi 393
za 393
obo 393
iyalo 393
ebentisa 393
nato 392
siko 392
emtsetf@@ 392
kimi, 391
sibon@@ 391
sif@@ 391
incenye 391
Ut@@ 391
ngubani 391
enu 391
nekw@@ 391
lung@@ 391
andzelako 390
fe@@ 389
sami 389
atfo 389
dzinga 389
12@@ 389
eka, 388
18@@ 388
solo 388
kukhona 388
khundleni 387
Khrist@@ 387
ngaloku@@ 387
inika 387
khona, 387
awuc@@ 387
lokul@@ 387
untfu, 386
kinga 386
eNingizimu 385
Lok@@ 385
ngaphansi 384
yek@@ 384
ukum@@ 384
usiso 384
ago 383
ama, 383
ekho 383
usisiwe 383
akwent@@ 382
leph@@ 381
tenu 381
Lol@@ 381
Wab@@ 381
dzab@@ 381
elwane 380
khohl@@ 380
Nam@@ 380
o.” 380
aphendvula 380
chubo 380
atiwa 379
," 379
Manj@@ 379
sas@@ 379
ative 379
Beng@@ 379
jeng@@ 378
ekwa 378
ahamb@@ 378
ulumende 378
yakhe. 378
alek@@ 378
adi 378
Min@@ 378
muntfu 377
khonta 377
Sawula 377
khosi. 376
kuto 376
walo 376
lena 376
Lit@@ 376
emav@@ 375
Nging@@ 375
sihl@@ 375
isiwe 375
Jud@@ 375
fundvo 375
emsebent@@ 374
Bal@@ 374
uh@@ 374
eya 374
ekus@@ 374
age 373
ony@@ 373
ebus@@ 373
Hlengiwe 372
atsatfu 371
dvo@@ 371
gomo 371
olobheni 370
bafundzi 370
nalowo 370
itselo 369
eceleni 369
afundz@@ 369
uyise 369
oni. 369
Liv@@ 369
lobh@@ 369
esandleni 369
kug@@ 369
Yeb@@ 368
Long@@ 368
abo. 368
kubon@@ 368
awe 368
kulam@@ 367
inikelo 367
letinye 367
nawo 366
base 366
res@@ 366
ngeke 366
lent@@ 366
saka@@ 366
iwo 366
bong@@ 365
emavi 365
Tr@@ 365
etimph@@ 365
zinga 364
nawe 364
abil@@ 364
aya, 364
Sil@@ 363
umbula 363
nako 363
bew@@ 363
ambo 363
mang@@ 362
dzala 362
Kuc@@ 362
wa-@@ 362
lamabili 361
cwele, 361
event@@ 361
yalo 361
ebenta 361
njalo, 361
indlu 360
titf@@ 360
advodza 360
ngeph@@ 359
ngent@@ 359
kuye: 359
lutfo 359
il 359
etfo 359
Njengobe 359
emhlabeni 359
ri@@ 359
ili, 359
labam@@ 358
so@@ 358
ugu 358
hlaz@@ 358
ili. 358
ans@@ 358
Emal@@ 358
jela 357
yase 357
afuna 356
oto 356
Le@@ 356
ul 356
akaz@@ 356
Sis@@ 356
kubhal@@ 356
"S@@ 355
idl@@ 354
angatsi 353
sak@@ 353
naked 353
..@@ 353
Live 353
kwakho 352
nguM@@ 352
ngemnyaka 352
idz@@ 351
ear@@ 351
dzingo 351
wane. 351
ngc@@ 351
elweni 351
utawu@@ 351
Buk@@ 351
akaJuda 351
khe 350
lelo 350
sha@@ 350
website 350
nin@@ 350
lakho 349
siwa 349
Jehova 349
afundzi 349
ombisa 349
_@@ 349
nje, 349
buk@@ 348
imphilo 348
Jo@@ 348
embikwa@@ 348
lutf@@ 348
enti. 347
yema@@ 347
!" 347
loko, 347
kulo 347
aka. 347
ents 347
lub@@ 347
pr@@ 346
tak@@ 346
akhe, 345
enj@@ 345
mon@@ 345
it 345
atsim@@ 345
kwati 345
letehluk@@ 344
kucala 344
ukuts@@ 344
for 344
Bay@@ 344
says: 343
yang@@ 343
tsetfo@@ 343
emny@@ 343
ts 343
labas@@ 343
sindz@@ 343
Levi 343
lesin@@ 343
nguye 342
uhlungu 342
thempeli 342
u.” 342
wati@@ 342
elo, 342
libh@@ 342
yeli@@ 342
inj@@ 341
)@@ 341
elini 341
ehlul@@ 341
king@@ 341
batsi 341
etfu. 340
elelwa 340
Kuhl@@ 339
ako: 339
em 339
On@@ 338
can@@ 338
wav@@ 338
tindlela 338
idolobha 338
Kuv@@ 338
Wh@@ 338
Sab@@ 338
khic@@ 337
beasiswa 337
og@@ 337
Kuph@@ 337
by 337
ali, 337
a" 337
Davide, 337
atis@@ 337
hulumende 337
ost@@ 336
fr@@ 336
ond@@ 336
ngoba 336
log@@ 336
ut 335
emehlo 335
libe 335
emehl@@ 335
watf@@ 334
akhe. 334
eting@@ 334
agama 334
nil@@ 334
11@@ 333
kubona 333
Ngel@@ 333
zin@@ 333
elekile 332
laSimakadze 332
emp@@ 332
ani? 332
go 332
kuwo 332
ul, 332
unya 331
kuwe 331
wandle 331
kanjani 331
weny@@ 331
yeM@@ 331
Besi@@ 331
aka-Israyeli, 331
ey 330
ngekulandzela 330
tesi@@ 330
int@@ 330
mayelana 330
Jerusalema, 329
up@@ 329
eba 329
elene 328
indzi 328
aguc@@ 328
labat@@ 328
(1) 328
wo 328
atjelo 328
kuSimakadze 328
ise, 327
funy@@ 327
atselo 327
usita 327
ay 326
ulu, 326
Mag@@ 326
nyalo 326
bob@@ 326
ethemp@@ 326
akul@@ 326
fana 326
kwetin@@ 325
bil@@ 325
cane 325
Nome 325
oko, 324
"Ng@@ 324
utsandvo 324
), 324
omnak@@ 324
tfutf@@ 324
indzaba 324
khandl@@ 324
ko@@ 324
letat@@ 324
awung@@ 323
sekutsi 323
ezulw@@ 323
khaya 323
lenkhulu 323
Konkhe 322
D 322
loko. 322
ah 322
mal@@ 322
tful@@ 322
kuphila 321
lo 321
ifundz@@ 321
etwa 321
lenc@@ 321
Jakobe 321
Inc@@ 321
Emv@@ 321
lolu@@ 321
C 320
Sikh@@ 320
oyisa 320
Ase 320
yetin@@ 319
wini 319
uka, 319
hhayi 318
vu 318
acondzana 318
wente 318
lelit@@ 317
video 317
akazange 317
yini? 317
kwam@@ 317
shangatsi 317
nalam@@ 317
wag@@ 316
ingi 316
s. 316
icala 316
inhlitiyo 316
Beku@@ 316
ingo 316
umay@@ 316
Asi@@ 316
njengal@@ 315
amu, 315
sase@@ 315
sikati 315
beautiful 315
awuv@@ 315
labeb@@ 315
ea@@ 315
iseni 315
ent 315
Es@@ 315
dle@@ 315
ngitsi 315
kona 315
phendvula 315
odi 315
bakho 315
ndzaw@@ 315
jik@@ 315
Velonkhe 314
ti. 314
asik@@ 314
14@@ 314
ubo 314
elo. 313
imin@@ 313
utsatsa 313
ej@@ 312
anis@@ 312
ohl@@ 312
i." 311
comm@@ 311
atsini 311
etsi 311
Jer@@ 310
Kwa@@ 310
son@@ 307
Home 306
15@@ 305
00 305
Ad@@ 304
ance 304
bi 304
S 303
ekelo 302
aha 302
Mak@@ 301
000 300
com@@ 300
umc@@ 299
:1@@ 299
30 299
may@@ 298
emat@@ 298
Lis@@ 297
ano 296
lish@@ 296
"B@@ 295
.... 295
ge 295
10 295
indl@@ 294
but@@ 293
ening@@ 293
lef@@ 292
eman@@ 291
30@@ 290
take 290
ek 289
Vel@@ 289
Emp@@ 289
13@@ 289
langu@@ 288
ativ@@ 288
(a) 287
lav@@ 286
no 286
o." 285
12 285
imu 285
SA@@ 285
lev@@ 284
ose 284
IN@@ 284
abili 283
Ma@@ 283
Joshu@@ 282
vi@@ 281
ulum@@ 280
enca 280
ro 279
Sing@@ 279
17@@ 278
ch 277
e... 277
ter@@ 275
Njeng@@ 275
shad@@ 274
bak@@ 274
0. 273
lak@@ 272
Bat@@ 272
lots 271
luc@@ 271
Level 271
• 271
e.@@ 270
ses@@ 270
e" 270
fa@@ 269
= 269
ise. 269
Isray@@ 269
ear 269
o-@@ 268
Web@@ 267
En@@ 267
0, 266
epha 266
nom@@ 265
Gre@@ 265
oth@@ 265
ari@@ 264
Ev@@ 263
i) 263
ive, 263
24@@ 263
3) 262
sat@@ 261
lec@@ 260
ana@@ 260
or 258
Con@@ 258
Gr@@ 256
ly 256
16@@ 255
Jord@@ 255
le-@@ 254
lac@@ 254
23@@ 253
Jak@@ 253
yi@@ 252
f 251
enjam@@ 251
z 251
ight 250
at. 250
him@@ 249
Gil@@ 249
Sin@@ 249
swa 249
Angel@@ 248
su@@ 247
21@@ 246
David@@ 245
ages 244
ize 244
(b) 244
Mal@@ 243
Abra@@ 243
es. 242
ok 241
E 240
Pr@@ 240
years 239
mat@@ 238
Neb@@ 238
Wat@@ 238
fish@@ 237
wash@@ 237
1] 236
uth@@ 235
Sar@@ 235
th 234
ail@@ 234
all 233
1.@@ 230
themp@@ 230
me@@ 230
The 230
é@@ 229
ilo@@ 229
ans 228
es, 228
Vide@@ 228
ad 228
ā 227
ining@@ 227
Jerusalem@@ 227
v 227
os 227
Na@@ 226
25@@ 226
ile@@ 225
22@@ 225
ñ@@ 225
avel@@ 225
ce@@ 224
uck 223
Wel@@ 222
ave 221
the@@ 221
Mat@@ 220
new@@ 220
pl@@ 219
11 218
le: 218
X@@ 217
vide@@ 217
imp@@ 216
ako-ke 215
21 215
14 215
dom@@ 214
Eli@@ 213
Fr@@ 213
ir 212
mak@@ 212
No@@ 212
#@@ 211
basi@@ 210
ic 210
king 210
br@@ 209
Bar@@ 209
rics 209
Ag@@ 209
ly@@ 208
"L@@ 207
nd@@ 207
2. 207
]@@ 207
Gal@@ 206
Leb@@ 205
ess 205
fo@@ 205
Pro@@ 204
é 204
ie 204
Jerem@@ 204
Ba@@ 203
mem@@ 202
hav@@ 201
ers 199
mar@@ 199
ill@@ 199
for@@ 198
Cal@@ 198
t. 198
er. 198
ham@@ 198
sibil@@ 197
Br@@ 197
Sel@@ 196
s, 195
leg@@ 195
sp@@ 194
ter 194
ndz@@ 194
market@@ 194
Res@@ 193
15 193
olit@@ 192
ed. 192
ies 191
bea@@ 191
ets 190
Se@@ 190
time 190
sid@@ 190
pe@@ 189
izimu 189
man 189
Fin@@ 188
fic@@ 188
ce 188
wh@@ 188
› 188
kakhul@@ 187
;@@ 187
List@@ 187
M 186
ime 186
ex@@ 186
c) 186
24 185
po@@ 185
ue 185
site. 185
Abraham@@ 184
mo@@ 184
Be@@ 184
um 184
(2) 183
P 183
uch@@ 182
unc@@ 182
18 182
lose 182
di@@ 182
us 182
B 181
â@@ 180
ome 179
eve 179
her@@ 178
28@@ 177
ibhi@@ 177
50 176
Ash@@ 176
loc@@ 176
ice 176
!! 176
att@@ 175
its 175
Par@@ 174
=@@ 174
Heb@@ 173
25 173
ess@@ 173
lik@@ 173
"H@@ 173
David 171
+ 170
ial 170
ṭ@@ 170
ain@@ 169
Be 169
my 169
Phil@@ 168
Hez@@ 168
les 168
Bea@@ 168
mil@@ 168
Bas@@ 168
ebr@@ 168
??@@ 167
U 167
So@@ 167
V 167
a's 166
enem@@ 166
Jonath@@ 166
pul@@ 166
Life 165
13 165
hum@@ 165
olobh@@ 165
22 165
all@@ 165
Ser@@ 165
asham@@ 164
sw@@ 164
Po@@ 164
w 164
glo@@ 164
t: 164
own@@ 163
erc@@ 163
ty 163
sisekelo 163
oke 162
ot 162
re 161
↑ 161
siswa 160
>@@ 159
come 158
4) 158
ṃ 158
cel@@ 157
op 156
cit@@ 156
Ham@@ 156
ga@@ 155
out 155
tes@@ 154
achub@@ 154
es: 154
She@@ 154
en. 153
ited 153
17 153
Jehov@@ 152
Israyeli, 152
ngekul@@ 152
val@@ 152
j 152
fel@@ 152
par@@ 151
ley 150
ur 150
ast 150
ge@@ 150
om 149
23 148
16 148
ace 148
ca@@ 148
men@@ 148
mor@@ 147
El@@ 147
ubani 146
dleni 145
L 145
por@@ 145
Ne@@ 145
ank@@ 145
hab@@ 145
ext 144
Pet@@ 144
AN@@ 144
uti@@ 144
ings 144
ary 143
tion 143
im 143
(1@@ 143
We 142
ating 142
sul@@ 141
au@@ 141
O 140
Jan@@ 140
ther@@ 140
odvwa 140
Sp@@ 140
line 140
*@@ 139
Love 139
dr@@ 138
love. 138
pro@@ 136
hor@@ 135
dis@@ 135
ting 135
an. 135
€@@ 135
land@@ 134
ak 134
ass@@ 134
All 134
Com@@ 134
amil@@ 134
ner@@ 133
ews 133
cul@@ 133
sav@@ 133
ard@@ 132
pal@@ 131
abhul@@ 131
!!! 130
ens@@ 130
Her@@ 130
Q@@ 130
Beth@@ 130
1. 129
T 129
earch 129
de@@ 129
sk@@ 129
ged 129
ity 128
en, 128
mp@@ 128
gu@@ 128
e's 127
pa@@ 127
mag@@ 127
Vi@@ 127
akati 126
tu@@ 126
Cha@@ 126
ing, 126
ol 125
%@@ 124
<@@ 124
shiwo 124
are 124
à 124
ation@@ 122
s) 121
son 121
fil@@ 121
¢ 121
We@@ 120
Tel@@ 120
yet 120
beli@@ 120
Ac@@ 119
iver@@ 119
Sal@@ 118
get@@ 118
Inter@@ 118
shi@@ 117
Ben@@ 117
net 117
ment 116
ver@@ 116
tle 116
fi@@ 115
ish 115
acondz@@ 115
:3@@ 115
year 114
ow 114
low 114
dar@@ 113
y. 113
· 113
get 113
an, 113
ire@@ 112
iet@@ 112
2) 111
?' 111
"C@@ 111
ke@@ 111
y, 111
Go@@ 110
Indi@@ 109
Bel@@ 109
ics 109
Rem@@ 109
Gibhi@@ 109
It@@ 109
time. 108
~ 108
sol@@ 108
eal@@ 107
per@@ 107
hel@@ 106
org@@ 106
ats 106
Ex@@ 106
→ 106
← 106
N 106
ons 105
ire 105
cam@@ 105
end 105
thy 105
ment@@ 104
but 103
South 103
jo@@ 102
day@@ 102
st 102
und@@ 101
mis@@ 100
cho@@ 100
Wil@@ 100
war@@ 100
ure@@ 100
car@@ 99
Sat@@ 99
</@@ 99
help@@ 99
life 98
Hel@@ 98
,' 97
ab 97
iness 97
ams 96
ard 96
.) 96
Cap@@ 96
....@@ 96
Med@@ 95
cha@@ 95
old 95
ill 94
posi@@ 94
y: 94
ser@@ 94
ayibh@@ 94
$@@ 93
ember 93
cas@@ 93
ann@@ 93
mod@@ 93
saf@@ 93
Let's 91
By 91
ep 91
ing. 90
id 90
mess@@ 90
ure 90
it. 90
Eng@@ 90
Re@@ 89
African 89
ots 89
Rep@@ 89
able 89
Sa@@ 89
sm@@ 88
cont@@ 88
ord@@ 88
ech@@ 87
cub@@ 87
J 87
eting 87
F 87
Co@@ 86
@@@ 86
land 86
rem@@ 85
ible 85
out@@ 85
utif@@ 85
tur@@ 85
els 85
Me@@ 85
Mon@@ 85
ant 85
lack 85
ry 85
ever 85
little 85
t, 84
Christ@@ 84
sec@@ 84
Or@@ 83
ustr@@ 83
tw@@ 83
ain 83
Comm@@ 83
year@@ 82
oun@@ 82
^ 82
Dr@@ 82
del@@ 82
&@@ 82
artic@@ 81
pos@@ 81
hus@@ 81
bur@@ 81
# 80
ed, 80
World 80
ote 80
age. 80
app@@ 80
ations 80
í@@ 80
sac@@ 79
ist 79
d. 79
Per@@ 79
ost 79
{@@ 78
our@@ 78
ntf@@ 78
🙂 78
phiwe 78
days 78
W 78
pp@@ 77
old@@ 77
ret@@ 77
gh@@ 77
in. 77
elop@@ 76
sex@@ 76
Jerusal@@ 76
R 76
National 76
sc@@ 76
} 75
ian 75
on. 75
rist@@ 75
talk 75
ou 74
ion 74
sub@@ 74
ere 74
ouse 74
beasi@@ 74
arr@@ 74
Qu@@ 74
ks 73
For@@ 73
ated 73
ide 73
Di@@ 73
ar. 73
ely 72
á@@ 72
l. 72
~@@ 72
X 72
sity 72
ust 71
tion@@ 71
Mor@@ 71
my@@ 71
ked 71
har@@ 70
obe@@ 70
b) 70
up 70
ures 69
musi@@ 69
’@@ 69
vid@@ 69
al. 69
H 69
rop@@ 69
shu@@ 68
our 68
ner 68
don@@ 68
was 68
ed: 68
less 68
Sc@@ 68
on, 68
tor@@ 68
wo@@ 67
inter@@ 67
ade 67
| 67
ī@@ 66
ory 66
soc@@ 66
In 66
unkul@@ 66
hat 66
š@@ 66
er, 65
Take 65
ness 65
K 65
May 65
Africa 65
bar@@ 65
ense 64
Pa@@ 64
ew 64
self@@ 64
vic@@ 64
S. 64
case 64
win@@ 64
Thank 63
ū@@ 63
Wor@@ 63
De@@ 63
[ 63
Jac@@ 63
ific@@ 63
G 62
ē 62
in, 62
said@@ 62
ü@@ 61
John 61
ens 61
day 61
acc@@ 61
alleng@@ 60
lor@@ 60
ing: 60
str@@ 60
et. 60
anim@@ 60
arm@@ 60
post@@ 60
gre@@ 59
Your 59
h, 59
Dis@@ 59
So 59
Presid@@ 59
You 59
vo@@ 59
one, 59
new 58
-- 58
k. 58
ree 58
ight@@ 57
ay, 57
oul@@ 57
Af@@ 57
aniz@@ 57
^@@ 57
ery 57
fin@@ 57
ince 56
lish 56
beg@@ 56
To 56
cr@@ 56
ening 56
ent. 56
+@@ 56
som@@ 56
From 55
ongs 55
ical 55
dev@@ 55
od 55
that 55
way 55
tor 55
says 54
ous 54
entr@@ 54
let 54
istr@@ 54
č@@ 54
ning 54
wit@@ 53
ins 53
cor@@ 53
ublic 53
ood 53
Phar@@ 53
pay@@ 53
stit@@ 53
duc@@ 52
ay. 52
ines 52
▪ 52
ever@@ 52
ast@@ 52
name 52
als 52
sion 52
act 52
wil@@ 52
ress 52
fac@@ 51
n. 51
ution 51
Y 51
ates 51
Afric@@ 50
pas@@ 50
Mos@@ 50
rec@@ 50
more 50
¿@@ 50
hon@@ 49
tom@@ 49
unti@@ 49
like 49
ted 49
hom@@ 49
el, 49
igh 48
add@@ 48
rel@@ 48
men 48
ṅ@@ 48
@ 48
Sec@@ 48
best 48
ind 48
sist@@ 47
ship 47
wom@@ 47
Chris@@ 47
Ger@@ 47
say 47
ms 46
will 46
ä@@ 46
Ke@@ 46
at, 46
can 46
Eg@@ 46
dre@@ 46
k, 46
you@@ 46
ord 45
ack@@ 45
cre@@ 45
led 45
about 45
fer@@ 45
aking 45
side 45
tic 45
My 45
led@@ 45
one. 45
art@@ 44
ort 44
them@@ 44
lar@@ 44
form@@ 44
sear@@ 44
if 44
al, 44
oo@@ 44
ɱ 43
ick@@ 43
Jon@@ 43
lion 43
pic@@ 43
”@@ 43
ʻ@@ 43
show@@ 43
ṣ@@ 43
Pre@@ 43
from 43
ship@@ 42
pre@@ 42
ô@@ 42
ple 42
night 42
ener@@ 42
°@@ 42
ink 41
air@@ 41
row@@ 41
ç@@ 41
view 41
eth 41
Dav@@ 41
bod@@ 40
you 40
Hleng@@ 40
down@@ 40
iver 40
( 39
ate. 39
el. 39
ack 39
last 39
ph 39
tions 39
trib@@ 39
ition 39
ple@@ 39
left 38
never 38
--@@ 38
alt@@ 38
ther 38
lear@@ 37
ob 37
over 37
sion@@ 37
And 37
life@@ 37
Pe@@ 37
ö@@ 37
ō@@ 37
ḥ 37
il. 37
For 37
ly. 37
own 37
business 37
inv@@ 37
bl@@ 36
ture 36
You@@ 36
ank 36
eas@@ 36
ar, 36
sy@@ 36
fal@@ 36
An 35
bow@@ 35
d, 35
with 35
è@@ 35
die 35
world 35
ó@@ 35
she 35
dem@@ 35
gir@@ 34
right 34
show 34
list@@ 34
hhhh@@ 34
prof@@ 34
pi@@ 34
try 34
ṟ@@ 34
ide@@ 34
bro@@ 34
、 34
sin 34
day. 34
save 34
LO@@ 33
{ 33
oug@@ 33
ver 33
div@@ 33
is, 33
s? 33
The@@ 33
"G@@ 33
th. 33
temp@@ 33
ray@@ 33
are@@ 33
well@@ 33
dep@@ 33
ous@@ 33
lot 33
ach 32
ef 32
off@@ 32
ad. 32
along 32
den@@ 32
tain@@ 32
inf@@ 32
fri@@ 32
ent, 32
usal@@ 32
angel 32
Cour@@ 32
since 32
ō 32
med@@ 32
King 32
Ther@@ 31
fail@@ 31
ives 31
ṃ@@ 31
ano@@ 31
How 31
ê@@ 31
even 31
ments 31
visi@@ 30
ls 30
< 30
at's 30
said. 30
her 30
stor@@ 30
nigh@@ 30
wis@@ 30
believ@@ 30
back 30
enter 30
set 30
thr@@ 30
cent@@ 30
clo@@ 30
fir@@ 30
ts, 30
der@@ 29
trad@@ 29
ns 29
ı@@ 29
oub@@ 29
ps 29
sle@@ 29
just 29
One 29
â 29
det@@ 29
kant@@ 29
© 29
ality 29
in-@@ 29
reg@@ 28
ask@@ 28
ention 28
jec@@ 28
blo@@ 28
national 28
Â@@ 28
ement 28
Des@@ 28
not 28
sum@@ 28
der 28
♬ 28
God@@ 27
ities 27
sou@@ 27
Eph@@ 27
cap@@ 27
ling 27
ŋ@@ 27
¡@@ 27
had 27
ern@@ 27
kil@@ 27
– 27
full 27
ø@@ 26
ng 26
rip@@ 26
free 26
ten 26
went 26
work 26
ump@@ 26
each 26
follow@@ 26
serv@@ 26
€ 26
l, 26
hlit@@ 26
ú@@ 26
}@@ 25
ly, 25
bir@@ 25
ž@@ 25
on-@@ 25
Jesus 25
house 25
life. 25
á 25
lay 25
Hol@@ 25
😂 25
tre@@ 25
Paul 25
ants 25
said 25
it, 25
stat@@ 24
$ 24
ṇ@@ 24
has 24
ah. 24
sci@@ 24
ath 24
Z 24
y-@@ 24
dom 24
cer@@ 24
ness@@ 24
ors 24
ural 24
On 24
ond 24
ŋ 24
did@@ 24
't 24
n, 24
Israel 24
ao@@ 24
ency 24
ich 24
opp@@ 23
over@@ 23
ally 23
inst@@ 23
sing 23
week@@ 23
trans@@ 23
ī 23
ital 23
rev@@ 23
very 23
complet@@ 23
spr@@ 22
time, 22
ë@@ 22
vir@@ 22
ś@@ 22
ugg@@ 22
plan@@ 22
rep@@ 22
us. 22
memb@@ 22
struc@@ 22
😂@@ 22
cl@@ 22
sur@@ 22
righ@@ 21
word@@ 21
ros@@ 21
self 21
ts. 21
don't 21
ation. 21
into 21
en's 21
offic@@ 21
ṉ@@ 21
his 21
judg@@ 21
am, 20
def@@ 20
suc@@ 20
ith 20
chil@@ 20
ence. 20
mind@@ 20
now@@ 20
swe@@ 20
Q 20
ends 20
exp@@ 20
anks 20
ems 20
cour@@ 19
your 19
conf@@ 19
I'm 19
nec@@ 19
this 19
port 19
rofe@@ 19
Is 19
star@@ 19
eat 19
most 19
sent 19
god@@ 19
ṯ@@ 19
elec@@ 19
ligh@@ 19
ds 19
me. 18
sup@@ 18
or. 18
us, 18
ound 18
Now 18
ad, 18
ers. 18
ead 18
❤@@ 18
chi@@ 18
¦ 18
making 18
well 18
s; 18
ş@@ 18
bor@@ 18
down 18
wor@@ 18
benef@@ 18
❤ 18
̱ 18
š 18
😀 17
̱@@ 17
comp@@ 17
▼ 17
What's 17
woman 17
see 17
ḻ@@ 17
'll 17
bre@@ 17
û@@ 17
form 17
q 17
wife 17
Afr@@ 17
ã@@ 17
nor@@ 17
ers, 17
mid@@ 17
ounc@@ 17
î@@ 17
next 17
Fa@@ 17
What 17
ˈ@@ 17
part@@ 16
fru@@ 16
may 16
stituti@@ 16
But 16
es; 16
ś 16
–@@ 16
With 16
📅 16
ques@@ 16
ual 16
ches 16
ru@@ 16
cus@@ 16
ding 16
fur@@ 16
😉 16
money 16
pun@@ 16
He 15
cle@@ 15
ision 15
want 15
man, 15
me, 15
face 15
have 15
fron@@ 15
ess. 15
roc@@ 15
ses 15
ô 15
pass@@ 15
Let 15
n't 15
avail@@ 15
poin@@ 15
Worl@@ 15
home 15
Ple@@ 15
she@@ 15
tain 15
too 15
ation, 15
th, 15
Lord 15
des@@ 15
mov@@ 15
tod@@ 15
fec@@ 15
anger 14
ised 14
play@@ 14
•@@ 14
now 14
Are 14
beautif@@ 14
ter. 14
● 14
️ 14
times 14
away 14
yp@@ 14
ths 14
🎬 14
ound@@ 14
always 14
person 14
taken 14
made 14
"I 14
believe 14
law 14
prom@@ 14
pur@@ 14
♫ 14
pres@@ 14
language 14
﻿ 14
gra@@ 14
er's 13
body 13
thor@@ 13
ering 13
ess, 13
ght 13
dec@@ 13
follow 13
fiel@@ 13
prov@@ 13
because 13
Of 13
ching 13
would 13
Ü@@ 13
respon@@ 13
iting 13
ned 13
red 13
commun@@ 13
mean@@ 13
ʹ 13
ah, 13
God 13
ʹ@@ 13
wif@@ 13
those 13
ways 13
jus@@ 13
ḍ@@ 13
í 12
place 12
rul@@ 12
É@@ 12
this@@ 12
people 12
loye@@ 12
peri@@ 12
"The 12
main@@ 12
inform@@ 12
⁄@@ 12
pra@@ 12
what 12
any 12
gif@@ 12
order 12
hand@@ 12
ies. 12
day, 12
lic 12
tru@@ 12
ouse@@ 12
book 12
This 12
Because 12
ed; 12
😍 12
ters 12
port@@ 12
ones 12
tice 12
've 12
develop@@ 12
leav@@ 12
ject 12
ɓ@@ 12
ves 11
than 11
polic@@ 11
onom@@ 11
irc@@ 11
overn@@ 11
stand@@ 11
nex@@ 11
water 11
pay 11
ʼ@@ 11
uring 11
Who 11
hop@@ 11
leave 11
ē@@ 11
ć@@ 11
read@@ 11
ards 11
è 11
ying 11
Why 11
spec@@ 11
ğ@@ 11
how 11
y's 11
cur@@ 11
sons 11
ure. 11
oper@@ 11
′@@ 11
stud@@ 11
ugh@@ 11
bles@@ 10
🔥@@ 10
after 10
room@@ 10
tow@@ 10
also 10
ä 10
꞉@@ 10
pec@@ 10
️@@ 10
stre@@ 10
servic@@ 10
then 10
hun@@ 10
þ@@ 10
♡ 10
ɱ@@ 10
Ç@@ 10
worl@@ 10
friend@@ 10
look 10
service 10
At 10
allow@@ 10
·@@ 10
ņ@@ 10
real@@ 10
Isra@@ 10
some 10
good 10
″@@ 10
ṁ 9
She 9
It 9
ë 9
Moses 9
pris@@ 9
ition@@ 9
great 9
♥ 9
。 9
sed 9
plac@@ 9
head@@ 9
who 9
information 9
word 9
¢@@ 9
scho@@ 9
ites 9
camp@@ 9
ered 9
Do 9
ū 9
ref@@ 9
give 9
desig@@ 9
When 9
¶ 9
longer 9
makes 9
ement@@ 9
kind@@ 9
lead@@ 9
ḥ@@ 9
ı 9
been 9
light 9
proc@@ 9
® 9
jud@@ 9
coun@@ 9
outh 9
they 9
requ@@ 9
book@@ 9
õ@@ 8
years. 8
ç 8
God's 8
− 8
look@@ 8
ther, 8
ų@@ 8
family 8
ḳ@@ 8
state 8
、@@ 8
reas@@ 8
🤣 8
number 8
list 8
spir@@ 8
̈ 8
put 8
fre@@ 8
û 8
born 8
cover@@ 8
ied 8
were 8
wid@@ 8
ther. 8
giv@@ 8
That 8
à@@ 8
pray@@ 8
why 8
ll 8
manag@@ 8
↔ 8
doc@@ 8
saw 8
old, 8
🤣@@ 8
up. 8
send 8
per 8
Ú@@ 8
It's 8
eak 7
told 7
must 7
work@@ 7
shall 7
Baby@@ 7
●@@ 7
call 7
ñ 7
ness. 7
first 7
afra@@ 7
od. 7
heart 7
ept 7
hist@@ 7
ï 7
between 7
✔ 7
still 7
means 7
happ@@ 7
ý 7
tion, 7
gold 7
desi@@ 7
near 7
thing@@ 7
chang@@ 7
him 7
tell 7
ʺ 7
person@@ 7
ი@@ 7
İ@@ 7
As 7
when 7
son, 7
ę@@ 7
✄ 7
lud@@ 7
help 7
local 7
against 7
char@@ 7
got 7
many 7
pow@@ 7
better 7
activ@@ 7
ː@@ 7
ə@@ 7
ė@@ 7
ease 7
gener@@ 7
dren 6
iah 6
♦ 6
issu@@ 6
same 6
hear@@ 6
every@@ 6
present@@ 6
θ@@ 6
ɾ@@ 6
ḽ@@ 6
thers 6
ṛ@@ 6
hous@@ 6
great@@ 6
another 6
husb@@ 6
ਉ@@ 6
ਚ@@ 6
ਾ@@ 6
ਰ@@ 6
ਨ 6
ity, 6
ount 6
ough 6
off 6
ized 6
ṱ@@ 6
following 6
spe@@ 6
plain@@ 6
read 6
ý@@ 6
ü 6
effec@@ 6
া@@ 6
every 6
here 6
toge@@ 6
Simaka@@ 6
cov@@ 6
ment. 6
�@@ 6
😁 6
а@@ 6
row 6
concer@@ 6
× 6
it's 6
pri@@ 6
oth 6
£ 6
🎵 6
י@@ 6
These 6
ided 6
😆 6
laim@@ 6
🔥 6
only 6
head 6
exc@@ 6
♪ 6
food 6
Egypt 6
fore 6
ity. 5
childr@@ 5
educ@@ 5
▶ 5
ᐅ 5
your@@ 5
whole 5
σ@@ 5
where 5
ever, 5
꞉ 5
return 5
resul@@ 5
child 5
ness, 5
on't 5
could 5
č 5
cros@@ 5
ough@@ 5
assemb@@ 5
ï@@ 5
rema@@ 5
£@@ 5
out. 5
ask 5
you, 5
stand 5
\ 5
regul@@ 5
‘ 5
」 5
ń@@ 5
ought 5
other 5
numb@@ 5
Aar@@ 5
found 5
ব@@ 5
such 5
cause 5
✨ 5
ious 5
ety 5
∙ 5
Isa@@ 5
τ@@ 5
Lord@@ 5
know 5
peop@@ 5
experi@@ 5
dif@@ 5
† 5
kind 5
until 5
viol@@ 5
listen 5
Š@@ 5
I'@@ 5
ɗ@@ 5
mother@@ 5
﻿@@ 5
ã 5
again@@ 5
ɑ@@ 5
under 5
grou@@ 5
them 5
two 5
disc@@ 5
Á@@ 5
ღ 5
ð@@ 5
words 5
ˌ@@ 5
ɛ@@ 5
produc@@ 4
writ@@ 4
ע@@ 4
👌 4
Israel. 4
rom 4
thir@@ 4
If 4
⇒ 4
dea@@ 4
ì@@ 4
ḓ@@ 4
heal@@ 4
looking 4
Č@@ 4
anyone 4
city 4
I've 4
power 4
— 4
within 4
you're 4
Â 4
heav@@ 4
ign 4
flo@@ 4
‹ 4
uch 4
eca@@ 4
need@@ 4
which 4
¡ 4
ried 4
fall 4
under@@ 4
ř@@ 4
or, 4
without 4
מ@@ 4
י 4
contro@@ 4
used 4
should 4
including 4
hold 4
did 4
rest 4
Don't 4
ired 4
ended 4
chur@@ 4
sible 4
и@@ 4
ר@@ 4
five 4
wr@@ 4
ბ@@ 4
★ 4
sla@@ 4
seven 4
ỷ 4
ational 4
✧ 4
Å@@ 4
Israel@@ 4
succ@@ 4
called 4
ached 4
Some 4
\@@ 4
far 4
"You 4
young 4
say, 4
said, 4
‐ 4
↓ 4
😅 4
might 4
members 4
ó 4
earth 4
together 4
β@@ 4
women 4
ements 4
́@@ 4
Ā@@ 4
👍 4
л@@ 4
з@@ 4
б@@ 4
т@@ 4
thing 4
After 4
applic@@ 4
ʌ@@ 4
➢ 4
answ@@ 4
💃@@ 4
ḷ@@ 4
country 4
retur@@ 4
Egyp@@ 4
ṛ 4
ন@@ 4
ম 4
Acc@@ 4
deliv@@ 4
😁@@ 4
๓@@ 4
ened 3
ב@@ 3
feel 3
with@@ 3
will@@ 3
ß 3
ß@@ 3
✅ 3
support 3
ρ@@ 3
▲ 3
up, 3
χ@@ 3
🙌@@ 3
。@@ 3
equ@@ 3
😭 3
🤐@@ 3
ş 3
proper@@ 3
deter@@ 3
there@@ 3
human 3
change 3
° 3
☆@@ 3
marri@@ 3
Spirit 3
🏃@@ 3
‍@@ 3
♂@@ 3
buil@@ 3
comes 3
Christ 3
moun@@ 3
countr@@ 3
pleas@@ 3
does 3
ŵ@@ 3
・@@ 3
「@@ 3
נ@@ 3
ש@@ 3
prot@@ 3
■ 3
👍@@ 3
া 3
during 3
author@@ 3
asked 3
tion. 3
sure 3
section 3
given 3
few 3
ι@@ 3
augh@@ 3
whe@@ 3
joy 3
ת 3
suf@@ 3
đ@@ 3
keep 3
ą 3
ố 3
Þ@@ 3
being 3
part 3
again 3
【@@ 3
】@@ 3
through 3
're 3
appro@@ 3
🎀 3
high 3
☆ 3
ą@@ 3
took 3
though 3
ived 3
ő@@ 3
His 3
‟@@ 3
Ž@@ 3
│ 3
mountain@@ 3
ù 3
Í@@ 3
🙏 3
Ã@@ 3
whose 3
before 3
small 3
👌@@ 3
their 3
daughter 3
♥@@ 3
thre@@ 3
appear@@ 3
nation@@ 3
these 3
ould 3
Ş@@ 3
based 3
kno@@ 3
They 3
🇿@@ 3
ɪ@@ 3
À 3
е@@ 3
ا@@ 3
Ε@@ 3
Holy 3
point 3
prob@@ 3
Israel, 3
ʺ@@ 3
ž 3
ి@@ 3
జ@@ 3
|@@ 3
eping 3
ọ@@ 3
Spir@@ 3
ა@@ 3
ʒ@@ 3
while 3
‣ 3
I'll 3
◼ 3
➣ 3
💯 3
four 3
ect 3
Ä 3
ר 2
ל@@ 2
ched 2
😢@@ 2
ż 2
α@@ 2
ι 2
ț@@ 2
😊 2
ẕ@@ 2
ő 2
ƈ 2
death 2
destroy@@ 2
๒@@ 2
open 2
🇬@@ 2
living 2
¿ 2
🙌 2
👉@@ 2
ĥ@@ 2
ouldn't 2
employ@@ 2
syst@@ 2
typ@@ 2
₺ 2
fire@@ 2
anted 2
þ 2
మ@@ 2
written 2
Philis@@ 2
🔆 2
ither 2
☐ 2
̃@@ 2
‡@@ 2
ీ@@ 2
ల@@ 2
్ 2
Ṅ@@ 2
🤤 2
🏻 2
ভ@@ 2
three 2
🔍 2
🏆 2
ě 2
ি@@ 2
য@@ 2
▷ 2
high@@ 2
κ@@ 2
turned 2
💗 2
ღ@@ 2
§ 2
П@@ 2
р@@ 2
ж 2
coming 2
É 2
Đ@@ 2
⚑ 2
other@@ 2
much 2
ò@@ 2
💕@@ 2
vari@@ 2
‹@@ 2
🤔 2
・ 2
ה@@ 2
ג@@ 2
ה 2
Ø 2
ồ@@ 2
👇 2
faith 2
half 2
😕 2
È 2
ź 2
☺@@ 2
✿ 2
œ@@ 2
ļ@@ 2
eyes 2
│@@ 2
deser@@ 2
😛 2
using 2
ʔ 2
Alm@@ 2
ighty 2
⟩ 2
Lord, 2
◕@@ 2
seen 2
ų 2
😢 2
town@@ 2
hands 2
direc@@ 2
famil@@ 2
ė 2
✍@@ 2
s." 2
grow@@ 2
Then 2
bring 2
fect 2
✭ 2
®@@ 2
ʎ@@ 2
him. 2
⋙ 2
▢@@ 2
both 2
ending 2
🌟 2
👉 2
💜 2
Ū@@ 2
💫@@ 2
cannot 2
―@@ 2
desc@@ 2
came 2
health 2
There 2
◦@@ 2
Э@@ 2
Е@@ 2
і@@ 2
ل@@ 2
ي@@ 2
ز@@ 2
ب@@ 2
ε@@ 2
η 2
really 2
ć 2
govern@@ 2
จ@@ 2
cut 2
od, 2
contin@@ 2
meet 2
Ṱ@@ 2
😒@@ 2
Ō@@ 2
బ@@ 2
🚀 2
terr@@ 2
evil 2
η@@ 2
ο 2
😅@@ 2
serve 2
though@@ 2
having 2
ว@@ 2
×@@ 2
speak 2
¬@@ 2
¬ 2
among 2
። 2
there 2
ล@@ 2
✌ 2
🇦 2
თ@@ 2
მ@@ 2
ẽ@@ 2
æ@@ 2
▽@@ 2
import@@ 2
︠@@ 2
︡@@ 2
🔔 2
declar@@ 2
teach@@ 2
kill 2
ც@@ 2
Ó@@ 2
¦@@ 2
​@@ 2
ÿ 2
א@@ 2
examp@@ 2
public 2
ʉ 2
around 2
💛 2
estab@@ 2
Where 2
̊ 2
enough 2
☾ 2
′ 2
Ś@@ 2
ভ 2
স 2
ন 2
➜ 2
ח@@ 1
ק 1
them. 1
≤@@ 1
😱 1
Π@@ 1
ί@@ 1
日@@ 1
本@@ 1
語 1
库@@ 1
贝@@ 1
酒@@ 1
店 1
🇪@@ 1
🇬 1
❦ 1
🏾 1
🕊 1
Ì@@ 1
Ô 1
🚇 1
˒ 1
⌕ 1
『@@ 1
￼ 1
Pharao@@ 1
😎 1
Father 1
🤐 1
๖@@ 1
declares 1
filled 1
🥇 1
🇪 1
mother 1
Jerusalem 1
ಅ@@ 1
ನ@@ 1
ರ@@ 1
್@@ 1
ಹ 1
➔ 1
💙 1
🎛 1
ఖ@@ 1
్@@ 1
ం 1
ẖ@@ 1
▾ 1
Ļ@@ 1
డ@@ 1
ఓ@@ 1
క@@ 1
ే 1
💚 1
🍫 1
🚀@@ 1
📍 1
need 1
children 1
saying, 1
ং@@ 1
ল@@ 1
ষ@@ 1
government 1
ň@@ 1
◯ 1
প@@ 1
দ@@ 1
়@@ 1
ে 1
ো@@ 1
ট 1
💌 1
ready 1
ǎ 1
Ë@@ 1
ż@@ 1
� 1
⋆ 1
Κ@@ 1
ή 1
🤩@@ 1
ö 1
streng@@ 1
დ@@ 1
ს 1
წ@@ 1
ნ 1
ò 1
📷 1
바 1
파@@ 1
리 1
🥇@@ 1
ჭ@@ 1
✍ 1
ỹ 1
Ż@@ 1
♦@@ 1
î 1
ɨ@@ 1
proph@@ 1
→@@ 1
̌ 1
🌩 1
보@@ 1
츠@@ 1
와@@ 1
나 1
대@@ 1
통@@ 1
령 1
北 1
인@@ 1
권@@ 1
후@@ 1
퇴@@ 1
관@@ 1
계@@ 1
유@@ 1
지 1
가@@ 1
치 1
없@@ 1
었@@ 1
다@@ 1
연@@ 1
합@@ 1
뉴@@ 1
스 1
』 1
₪@@ 1
😈 1
😉@@ 1
ù@@ 1
upon 1
►@@ 1
🐻@@ 1
🐻 1
ȟ@@ 1
ů 1
✂ 1
☺ 1
Á 1
ஐ 1
ஐ@@ 1
iah, 1
drink 1
̇@@ 1
yourself 1
ʻ 1
ł@@ 1
👏 1
ʼ 1
➟ 1
😍@@ 1
Ø@@ 1
commit@@ 1
continu@@ 1
‿@@ 1
✦ 1
offering 1
things 1
✋@@ 1
չ@@ 1
կ 1
🎉 1
💦 1
` 1
standing 1
🌶 1
some@@ 1
Judah 1
fire 1
➡@@ 1
faith@@ 1
🇸@@ 1
ť 1
💋 1
ở@@ 1
ȝ@@ 1
😘 1
rece@@ 1
ᐉ 1
، 1
▲@@ 1
—@@ 1
መ@@ 1
ን@@ 1
ሸ@@ 1
ራ@@ 1
ተ@@ 1
ት 1
👤 1
✘ 1
ţ@@ 1
❓@@ 1
🔴 1
🔹@@ 1
thousand 1
ĩ@@ 1
offici@@ 1
protec@@ 1
∼@@ 1
∼ 1
ˈ 1
ƚ@@ 1
ween 1
member 1
ě@@ 1
̄ 1
answer@@ 1
ə 1
Ł 1
э@@ 1
伊@@ 1
丽@@ 1
莎@@ 1
白@@ 1
إ@@ 1
ث@@ 1
エ@@ 1
リ@@ 1
ザ@@ 1
ベ@@ 1
ス@@ 1
엘@@ 1
리@@ 1
자@@ 1
베@@ 1
스@@ 1
ए@@ 1
ल@@ 1
ि@@ 1
ज@@ 1
ा@@ 1
ब@@ 1
े@@ 1
थ@@ 1
ی@@ 1
ت@@ 1
λ@@ 1
ζ@@ 1
thous@@ 1
consid@@ 1
😠 1
God. 1
า@@ 1
ก 1
↓@@ 1
ɜ@@ 1
ɡ@@ 1
ĕ@@ 1
🦋 1
Ÿ@@ 1
♌@@ 1
😞 1
turn 1
ites, 1
💃 1
💎 1
💎@@ 1
💙@@ 1
🤟 1
himself 1
command@@ 1
swor@@ 1
appoin@@ 1
think 1
̬@@ 1
̬ 1
↔@@ 1
√ 1
fear 1
👽 1
💍 1
🎧 1
provid@@ 1
Ń@@ 1
ʌ 1
̲@@ 1
›@@ 1
🔊@@ 1
😝 1
ṭ 1
🌻@@ 1
🌻 1
📌 1
💀 1
و 1
😝@@ 1
😜 1
Β@@ 1
ģ@@ 1
ined 1
Ο 1
ή@@ 1
ς 1
℗ 1
😮 1
এ@@ 1
র 1
Τ@@ 1
ˆ@@ 1
న@@ 1
ె@@ 1
స@@ 1
▬ 1
ú 1
kingdom 1
😄 1
However, 1
includ@@ 1
cloth@@ 1
♅ 1
♇ 1
̈@@ 1
̼@@ 1
ร@@ 1
ี@@ 1
ิ@@ 1
ว 1
ω@@ 1
Ο@@ 1
👑@@ 1
👑 1
ꞌ 1
🌸 1
burn@@ 1
icked 1
✿@@ 1
⟡@@ 1
💝@@ 1
๑@@ 1
📘 1
everything 1
፤ 1
nor 1
␓ 1
อ@@ 1
ด@@ 1
์ 1
built 1
❀ 1
ɒ@@ 1
sacr@@ 1
💥 1
👸@@ 1
🏼 1
უ@@ 1
resp@@ 1
ũ@@ 1
ỳ@@ 1
⚡ 1
⋅ 1
provide 1
ʊ@@ 1
➤@@ 1
ʒ 1
ო@@ 1
ს@@ 1
Ġ@@ 1
🌏 1
į@@ 1
로@@ 1
̇ 1
⇑@@ 1
צ@@ 1
א 1
כ@@ 1
ו@@ 1
ן 1
ì 1
💏 1
Ă@@ 1
♪@@ 1
🖤@@ 1
🥀@@ 1
ɛ 1
dred 1
ნ@@ 1
ე@@ 1
ლ@@ 1
ა 1
speak@@ 1
📕 1
ր 1
🙄@@ 1
🙄 1
ṟ 1
ș@@ 1
φ@@ 1
ώ@@ 1
ν@@ 1
ు@@ 1
ు 1
according 1
🎈 1
ד@@ 1
ל 1
… 1
"This 1
ecause 1
ď@@ 1
☀ 1
find 1
inher@@ 1
eign 1
õ 1
ʉ@@ 1
☟ 1
💰 1
ṉ 1
lived 1
owever, 1
‐@@ 1
😯 1
ấ@@ 1
ố@@ 1
ả@@ 1
ơ@@ 1
✡ 1
Ï 1
looked 1
Ț@@ 1
ಮ@@ 1
ಂ@@ 1
ಗ@@ 1
ಳ 1
ɦ@@ 1
🚩 1
È@@ 1
Ò@@ 1
☾@@ 1
☽ 1
doing 1
÷@@ 1
😡 1
ording 1
ಜ@@ 1
ು@@ 1
ಲ@@ 1
ು 1
🌜 1
☁@@ 1
partic@@ 1
hand 1
⇨ 1
hear 1
👊@@ 1
ŝ@@ 1
🎩 1
😀@@ 1
estro@@ 1
🤜@@ 1
♯@@ 1
❆ 1
📚@@ 1
왓 1
포 1
🤪 1
ḱ@@ 1
■@@ 1
ǒ 1
ǐ 1
🐶 1
🙁 1
શ@@ 1
ર@@ 1
મ 1
ă 1
press@@ 1
eful 1
🎶@@ 1
😎@@ 1
○@@ 1
known 1
♡@@ 1
ů@@ 1
ـ@@ 1
ـ 1
๔@@ 1
๕@@ 1
❣ 1
☎@@ 1
✎ 1
Û 1
พ@@ 1
ก@@ 1
ส@@ 1
ู@@ 1
ู 1
Ä@@ 1
ল 1
ব 1
স@@ 1
খ 1
ত 1
ত@@ 1
💕 1
Õ@@ 1
crow@@ 1
♱ 1
🔊 1
👓 1
✧@@ 1
অ@@ 1
ফ@@ 1
temple 1
💖 1
🇧 1
gave 1
Ḳ@@ 1
∴ 1
🖤 1
℗@@ 1
ˌ 1
ɲ@@ 1
å@@ 1
😦 1
ṿ@@ 1
💯@@ 1
২@@ 1
০@@ 1
১@@ 1
২ 1
̥@@ 1
☼ 1
😭@@ 1
🙆 1
ished 1
😆@@ 1
ͻ@@ 1
ȏ@@ 1
ك 1
sacrific@@ 1
വ@@ 1
ി@@ 1
ǰ@@ 1
̯@@ 1
🥰 1
ፕ@@ 1
ላ@@ 1
ስ 1
ع@@ 1
ر@@ 1
ب 1
©@@ 1
