the 122649
of 69405
to 56862
and 56426
a 35254
in 31476
is 24941
ed 22769
The 22388
. 21549
you 18251
, 17520
s 17093
for 16812
I 16412
will 15539
on 15281
ing 15175
be 14641
that 14259
s@@ 14161
es 13995
are 13192
with 13171
t@@ 13078
"@@ 11968
p@@ 11737
not 11668
d@@ 11556
he 11364
his 11047
it 11009
f@@ 10955
S@@ 10855
your 10805
c@@ 10626
was 10301
r@@ 10165
m@@ 10159
y 9944
have 9580
g@@ 9574
as 9515
in@@ 9177
from 9124
or 8995
s. 8803
i@@ 8798
an 8779
e@@ 8764
er 8675
e. 8616
er@@ 8451
they 8450
re@@ 8404
b@@ 8302
all 8113
C@@ 8089
ar@@ 8073
e, 7983
t 7961
my 7788
by 7761
H@@ 7685
M@@ 7660
who 7656
h@@ 7651
's 7592
at 7350
o@@ 7246
w@@ 7237
(@@ 7214
it@@ 7187
st@@ 7166
-@@ 7085
e 7081
B@@ 7065
: 7022
n@@ 6979
on@@ 6967
al 6870
at@@ 6799
s, 6763
A@@ 6742
y@@ 6719
D@@ 6691
; 6635
their 6616
al@@ 6493
R@@ 6436
? 6414
one 6374
th@@ 6226
or@@ 6189
tr@@ 6180
ac@@ 6140
T@@ 6137
L@@ 5988
v@@ 5959
ic@@ 5928
- 5900
." 5887
k@@ 5837
E@@ 5836
this 5582
u@@ 5551
un@@ 5550
en@@ 5550
P@@ 5535
has 5507
ation 5310
N@@ 5265
G@@ 5254
es@@ 5217
ers 5200
He 5073
con@@ 5041
el@@ 5037
ly 5019
as@@ 5013
an@@ 4984
F@@ 4886
ch@@ 4835
were 4818
had 4747
them 4746
ed@@ 4724
out 4719
am@@ 4655
a@@ 4636
ad@@ 4616
l@@ 4614
il@@ 4565
'@@ 4492
but 4485
LORD 4476
ted 4471
sh@@ 4450
le@@ 4404
O@@ 4399
ed. 4394
ro@@ 4353
ent@@ 4346
W@@ 4326
do 4232
ur@@ 4202
ag@@ 4200
d 4187
him 4187
us@@ 4159
id@@ 4142
es. 4139
ts 4117
for@@ 4080
) 4071
... 4063
A 4030
ul@@ 4023
up 3989
we 3989
n 3965
ol@@ 3963
ate 3939
se@@ 3934
is@@ 3911
me 3888
et@@ 3877
ent 3814
God 3768
en 3727
k 3721
what 3692
h 3677
m 3633
es, 3624
In 3620
It 3568
ex@@ 3556
ut@@ 3532
im@@ 3473
J@@ 3453
ed, 3416
" 3410
op@@ 3384
y. 3380
can 3355
ter@@ 3321
king 3263
le 3262
si@@ 3255
no 3234
be@@ 3217
people 3187
th 3183
t. 3164
ec@@ 3153
ra@@ 3131
And 3130
been 3101
gr@@ 3098
They 3090
y, 3083
! 3073
so 3065
ab@@ 3040
tion 3013
pl@@ 3007
K@@ 2985
l 2984
This 2979
ir@@ 2975
our 2971
qu@@ 2963
us 2942
am 2942
.@@ 2931
li@@ 2925
when 2920
ear@@ 2917
You 2905
ing. 2903
like 2893
her 2878
But 2864
I@@ 2862
per@@ 2861
about 2851
its 2821
there 2807
ity 2799
em@@ 2798
ig@@ 2757
ot@@ 2755
man 2749
into 2746
res@@ 2733
t, 2726
sp@@ 2704
pr@@ 2686
able 2686
said 2679
if 2640
dis@@ 2594
ated 2589
because 2549
Then 2548
lo@@ 2541
ap@@ 2532
ies 2523
et 2518
ing@@ 2516
3@@ 2505
ting 2505
oc@@ 2500
and@@ 2477
any 2469
also 2464
ev@@ 2463
our@@ 2457
ar 2457
ob@@ 2453
z@@ 2448
ou@@ 2446
od@@ 2437
age 2400
anc@@ 2397
When 2395
me@@ 2391
ri@@ 2381
may 2378
Jesus 2356
which 2347
ep@@ 2341
no@@ 2318
p 2312
other 2311
V@@ 2310
pro@@ 2308
son 2308
come 2308
day 2305
om@@ 2289
iv@@ 2278
ti@@ 2270
2@@ 2257
We 2245
ing, 2242
would 2218
make 2218
over 2185
par@@ 2184
ha@@ 2175
So 2159
4@@ 2155
ay 2152
cr@@ 2139
if@@ 2137
ance 2137
those 2134
ist@@ 2124
must 2094
ind@@ 2094
wor@@ 2082
ve 2070
time 2065
er. 2065
made 2048
If 2045
Y@@ 2045
av@@ 2040
get 2032
5@@ 2032
before 2028
did 2016
Th@@ 2011
For 2001
ence 1997
go 1996
rec@@ 1996
against 1990
um@@ 1989
te@@ 1986
ter 1984
o 1975
se 1961
we@@ 1952
ment 1925
ther@@ 1921
take 1907
est 1907
men 1884
acc@@ 1870
er, 1870
dr@@ 1865
ary 1863
ph@@ 1861
know 1860
d. 1858
6@@ 1855
ning 1855
she 1855
ely 1853
x@@ 1852
end@@ 1851
U@@ 1850
wh@@ 1847
ant@@ 1833
?" 1831
What 1830
these 1821
ant 1812
enc@@ 1808
rel@@ 1806
mon@@ 1806
el 1798
St@@ 1788
os@@ 1782
aw@@ 1777
ents 1777
you, 1775
own 1768
you@@ 1764
:@@ 1763
ure 1756
car@@ 1745
ice 1735
went 1735
love 1731
said, 1725
came 1723
ise 1721
ings 1712
ue 1704
ess 1695
i 1693
ial 1690
Ch@@ 1690
ite 1687
les 1685
There 1683
les@@ 1681
it. 1679
di@@ 1671
com@@ 1671
ey@@ 1664
7@@ 1663
ally 1662
ard@@ 1658
j@@ 1657
pre@@ 1656
ned 1655
est@@ 1651
Z@@ 1651
on. 1650
de@@ 1647
co@@ 1641
str@@ 1636
min@@ 1633
land 1633
ill@@ 1632
il 1630
led 1628
should 1627
ine 1627
ast 1626
ard 1623
give 1622
ad 1622
down 1622
ow@@ 1619
ered 1616
put 1615
ess@@ 1605
comp@@ 1601
inc@@ 1597
Sh@@ 1596
af@@ 1590
more 1589
ons 1589
ch 1588
then 1585
good 1579
ous 1578
go@@ 1576
than 1572
him, 1571
all@@ 1566
ah 1561
ef@@ 1558
fe@@ 1553
id 1553
two 1536
ty 1528
on, 1527
dec@@ 1524
2 1519
My 1517
eg@@ 1505
1@@ 1499
It's 1499
ud@@ 1497
a. 1492
en, 1486
ain@@ 1478
b 1476
ok@@ 1476
new 1473
ge 1472
pos@@ 1471
see 1469
ah@@ 1463
," 1461
ne@@ 1452
br@@ 1450
some 1447
Do 1446
8@@ 1446
g 1442
where 1439
each 1437
bo@@ 1428
to@@ 1426
ord@@ 1425
man@@ 1413
very 1403
oun@@ 1397
only 1395
end 1393
after 1388
way 1386
ip@@ 1383
1 1381
la@@ 1372
ever 1372
ish@@ 1372
att@@ 1368
you. 1363
ak@@ 1362
pe@@ 1346
ness 1344
d, 1343
ub@@ 1343
ation@@ 1341
a, 1340
en. 1338
comm@@ 1335
them. 1330
ver@@ 1330
ong@@ 1329
r 1328
9@@ 1327
o, 1327
sur@@ 1327
e's 1325
back 1324
ry 1320
him. 1317
In@@ 1316
mor@@ 1314
nam@@ 1312
por@@ 1309
over@@ 1306
x 1305
how 1305
sc@@ 1303
through 1297
name 1293
gu@@ 1293
th. 1290
--@@ 1287
low@@ 1287
How 1283
does 1276
them, 1276
wat@@ 1274
Un@@ 1273
work 1271
want 1271
I'm 1271
/@@ 1268
As 1268
tor@@ 1265
e: 1261
ations 1258
c 1257
many 1252
O 1252
ang@@ 1251
ish 1250
up@@ 1248
house 1243
ea@@ 1241
inter@@ 1240
ay@@ 1240
fac@@ 1238
ath@@ 1237
Con@@ 1236
serv@@ 1236
ks 1233
let 1229
ans 1220
cre@@ 1217
sec@@ 1215
le. 1215
igh@@ 1211
tre@@ 1211
used 1209
wa@@ 1209
shall 1208
ib@@ 1208
years 1207
rem@@ 1205
even 1204
form@@ 1204
off@@ 1203
ew@@ 1202
als 1201
3 1199
great 1196
Ar@@ 1194
su@@ 1192
201@@ 1189
0@@ 1187
clo@@ 1186
Wh@@ 1185
father 1183
An@@ 1182
first 1180
ach@@ 1179
LORD, 1178
mar@@ 1173
set 1172
ying 1170
th, 1170
place 1166
ong 1161
use 1158
ic 1155
ight 1153
land@@ 1153
me, 1152
"I 1148
bre@@ 1147
live 1147
eb@@ 1146
plac@@ 1144
ill 1143
tion@@ 1139
them@@ 1138
sit@@ 1137
old 1134
going 1133
ating 1133
Israel 1130
now 1130
.' 1128
do@@ 1127
hear@@ 1125
cle@@ 1123
arm@@ 1121
lic@@ 1120
cour@@ 1114
e-@@ 1113
sin@@ 1109
word 1106
among 1104
5 1104
fo@@ 1102
w 1102
sed 1095
s: 1095
o. 1091
lov@@ 1089
ace 1088
vi@@ 1084
under 1075
uc@@ 1073
liv@@ 1072
az@@ 1071
ds 1067
under@@ 1067
ep 1066
sub@@ 1066
ory 1064
days 1062
' 1062
don't 1059
ation. 1059
ose 1059
every 1055
k. 1054
tim@@ 1053
life 1049
brought 1047
All 1046
just 1044
tions 1043
took 1041
ther 1040
9 1040
sion 1038
ov@@ 1037
). 1035
bur@@ 1033
ound@@ 1032
eas@@ 1029
ce 1028
Pro@@ 1025
right 1024
away 1023
ants 1020
command@@ 1019
ful@@ 1017
6 1015
Lord 1013
law@@ 1013
Am@@ 1013
sid@@ 1011
lin@@ 1010
requ@@ 1010
ever@@ 1008
long 1008
sig@@ 1007
po@@ 1006
On 1006
sent 1006
him@@ 1005
ive 1005
8 1001
ement 1000
God, 998
given 998
bro@@ 998
ked 998
the@@ 997
His 996
sel@@ 996
pur@@ 995
sons 995
David 995
iti@@ 992
called 990
def@@ 989
wal@@ 982
reg@@ 977
say 976
ain 975
tic@@ 975
mo@@ 975
side 974
4 973
] 972
it, 972
ase 969
ir 968
gave 968
fin@@ 965
her@@ 964
bel@@ 962
cal@@ 960
he@@ 957
ug@@ 957
tur@@ 956
bring 956
ful 955
ass@@ 952
South 951
Al@@ 951
of@@ 949
7 946
out@@ 942
proc@@ 941
cit@@ 940
ical 938
low 936
To 935
ates 935
iz@@ 931
ia 931
ts. 928
me. 925
ound 925
sist@@ 923
ther, 921
fa@@ 920
Ab@@ 920
e; 920
las@@ 917
between 914
star@@ 914
such 913
Your 913
water 912
inv@@ 910
19@@ 909
hand 908
less 907
Now 907
still 906
ten@@ 905
ling 905
ear 903
prov@@ 902
!" 902
proph@@ 901
three 900
saw 900
cap@@ 899
[@@ 898
happ@@ 897
year@@ 896
off 895
ot 894
need 892
iah 891
st 890
• 889
0 888
ead 887
being 884
om 884
ment@@ 881
le, 881
ah, 880
e? 880
without 880
never 878
thers 876
tain@@ 875
app@@ 875
,@@ 875
ati@@ 875
sk@@ 874
ail@@ 871
ca@@ 868
ach 866
leg@@ 865
could 864
jo@@ 863
well 861
year 860
order 857
hand@@ 855
ek@@ 854
children 854
ised 854
ried 853
duc@@ 852
ho@@ 851
ship 851
pres@@ 851
Why 850
self@@ 845
mis@@ 845
char@@ 845
cur@@ 842
struc@@ 841
tiv@@ 838
things 836
e." 833
let@@ 833
ile 830
add@@ 829
ites 828
prom@@ 826
giv@@ 826
produc@@ 823
until 821
tell 819
ath 818
...@@ 818
Mar@@ 814
so@@ 812
lead@@ 812
ari@@ 808
say@@ 807
adv@@ 806
heard 805
Don't 804
wr@@ 802
These 801
help 800
loc@@ 797
ash@@ 792
us, 792
s; 791
Tr@@ 790
Jes@@ 789
As@@ 786
ref@@ 785
rece@@ 783
around 783
ers. 781
ide 779
bir@@ 778
well@@ 778
des@@ 778
ther. 777
an, 775
med@@ 773
ures 773
im 771
law 771
ol 771
God. 770
cor@@ 769
spec@@ 769
ick@@ 767
sal@@ 766
emb@@ 765
look 762
become 762
stud@@ 762
eat 762
heav@@ 761
left 759
worl@@ 757
tive 756
ities 754
lear@@ 753
provid@@ 753
lam@@ 751
ls 749
cer@@ 747
tain 747
cho@@ 746
're 745
way@@ 745
told 744
found 743
reas@@ 742
respon@@ 741
ust 740
work@@ 739
same 739
Ac@@ 739
She 738
ani@@ 738
read@@ 736
ten 735
day@@ 733
eal@@ 733
ts, 733
spir@@ 733
lish@@ 732
Bo@@ 730
sy@@ 730
Jud@@ 729
mat@@ 729
eph@@ 729
it's 728
After 728
ect 727
od 726
Par@@ 726
exp@@ 726
jec@@ 726
sm@@ 726
ied 725
At 725
fer@@ 725
col@@ 723
city 722
Jo@@ 721
done 721
stand 717
ree 716
thr@@ 716
ent. 716
Who 716
dl@@ 715
find 714
LORD. 714
answ@@ 712
ta@@ 712
ous@@ 712
Let 711
hom@@ 711
king@@ 711
dep@@ 711
war@@ 710
enti@@ 709
gre@@ 708
keep 707
Israel@@ 707
world 706
lec@@ 706
number 706
ept 706
God@@ 705
us. 705
"S@@ 705
Moses 704
ual 703
hol@@ 701
fi@@ 700
eng@@ 696
ake 696
tod@@ 695
heart 694
sup@@ 694
One 694
fel@@ 693
20@@ 693
tal@@ 692
young 692
fir@@ 689
lor@@ 688
ets 688
anim@@ 687
Egyp@@ 685
asked 684
ount 684
"The 683
isi@@ 683
ow 683
ative 683
following 679
most 679
sil@@ 678
Com@@ 678
dom@@ 677
emp@@ 677
dem@@ 677
comes 676
tak@@ 675
follow@@ 675
erc@@ 674
ember 672
sol@@ 671
offer@@ 671
trib@@ 670
family 666
ited 666
teach@@ 665
n't 664
't 664
Christ@@ 663
though 661
Se@@ 661
was@@ 660
lif@@ 659
log@@ 658
righ@@ 658
ey 657
ps 656
ors 656
nec@@ 656
ques@@ 656
row@@ 655
Is 654
hon@@ 652
words 652
eh@@ 651
ens@@ 649
offic@@ 649
ts@@ 648
Lo@@ 648
act 647
hous@@ 646
sa@@ 645
ers, 645
whole 643
says: 641
thir@@ 641
head@@ 640
ened 640
need@@ 639
Christ 639
ding 639
div@@ 637
famil@@ 636
gener@@ 636
ends 635
ship@@ 635
tw@@ 635
father@@ 635
an. 634
any@@ 634
lat@@ 633
while 632
gra@@ 631
bat@@ 630
Mos@@ 629
much 628
upon 628
ek 628
dea@@ 627
dev@@ 626
stand@@ 626
little 626
Jac@@ 625
know@@ 625
stat@@ 624
commun@@ 623
got 621
mil@@ 620
og@@ 619
bles@@ 618
hi@@ 617
Mo@@ 616
ure@@ 616
person 615
ought 614
fiel@@ 614
coun@@ 614
You@@ 612
New 612
read 610
set@@ 608
Let's 607
f 607
10@@ 606
both 606
sing 606
old@@ 605
ition 604
Israel, 604
Ex@@ 603
val@@ 602
em 602
Ad@@ 602
taken 602
LORD@@ 602
ns 598
ire 597
No 597
develop@@ 596
born 595
ale 595
enem@@ 594
body 593
ision 592
stor@@ 592
King 592
Pr@@ 592
food 591
hor@@ 591
don@@ 591
ious 591
part 590
bor@@ 590
countr@@ 589
:1@@ 589
od. 586
har@@ 586
fun@@ 585
ages 584
down@@ 584
ution 584
childr@@ 583
From 582
tom@@ 582
ough@@ 581
your@@ 580
temple 580
ay. 580
nat@@ 580
applic@@ 579
ight@@ 578
ture 578
fr@@ 577
are@@ 577
God's 577
op 576
selves 574
ris@@ 574
chang@@ 574
elec@@ 573
ation, 572
ity. 570
ly@@ 570
whom 570
woman 570
u 570
pas@@ 570
ived 569
pp@@ 568
te 567
ligh@@ 567
alt@@ 566
eyes 566
Judah 565
arr@@ 564
faith@@ 564
h, 563
resul@@ 563
became 562
200@@ 562
det@@ 562
face 561
posi@@ 560
pray@@ 559
Jerusalem@@ 558
fic@@ 558
org@@ 557
why 557
Take 557
wel@@ 557
umb@@ 557
ind 556
mov@@ 556
ur 555
at's 555
tion. 555
another 555
resp@@ 554
es: 553
k, 553
home 552
mother 552
equ@@ 552
beautiful 551
dar@@ 551
list@@ 551
heal@@ 551
ens 550
living 549
Gre@@ 548
ame 548
soc@@ 547
cl@@ 547
sle@@ 546
ood 545
temp@@ 545
rema@@ 544
high 544
stit@@ 544
power 543
row 543
That 543
ards 542
aph@@ 542
always 542
every@@ 542
seven 540
earth 540
wom@@ 540
Sam@@ 540
think 539
ok 538
rul@@ 538
un 537
tel@@ 536
bab@@ 535
Be@@ 535
ion 534
beg@@ 534
scho@@ 534
together 534
pi@@ 533
Lev@@ 533
ple@@ 533
rip@@ 532
complet@@ 532
son@@ 531
We@@ 530
nor@@ 530
hands 530
bac@@ 530
form 529
ef 529
dre@@ 528
peop@@ 528
hel@@ 528
now@@ 527
ner 526
S 525
ute 524
Re@@ 524
"You 523
pic@@ 522
ms 522
sing@@ 521
consid@@ 521
fri@@ 520
hold 519
light 519
ustr@@ 519
cas@@ 519
Israelites 518
David@@ 518
new@@ 518
appro@@ 518
y-@@ 518
knowled@@ 518
own@@ 518
Man@@ 518
um 517
writ@@ 517
cent@@ 517
long@@ 516
oke 516
examp@@ 516
abil@@ 516
ly, 515
along 513
fec@@ 513
int@@ 512
ched 512
.... 512
known 511
cont@@ 511
mas@@ 510
trans@@ 510
Jerusalem 510
ah. 509
cul@@ 508
sum@@ 507
repli@@ 507
evil 507
four 506
mess@@ 506
amb@@ 506
thing@@ 503
und@@ 503
Fr@@ 502
pris@@ 502
age. 501
at. 500
gir@@ 500
at, 500
i, 500
might 499
next 498
fil@@ 498
last 498
grou@@ 497
tab@@ 497
istr@@ 496
say, 496
vo@@ 496
sion@@ 495
bod@@ 494
care 494
lot 494
rep@@ 493
daugh@@ 493
fru@@ 492
With 492
according 492
ret@@ 491
pleas@@ 490
servant 490
word@@ 490
ject 489
different 489
ths 488
cel@@ 488
ga@@ 488
Be 488
ly. 487
grow@@ 487
wife 486
s? 486
everything 486
ering 486
disc@@ 486
commit@@ 486
'll 485
event@@ 485
!@@ 484
ebr@@ 484
oub@@ 484
coming 484
lem@@ 484
sim@@ 482
help@@ 482
ser@@ 481
five 481
syst@@ 480
death 480
pra@@ 480
hop@@ 479
eth@@ 479
direc@@ 478
wis@@ 478
town@@ 478
buil@@ 478
Baby@@ 476
public 476
offering 476
tit@@ 475
pri@@ 475
includ@@ 474
ent, 472
ters 472
educ@@ 472
pow@@ 472
marri@@ 471
judg@@ 471
outh 471
Jeh@@ 471
author@@ 470
deser@@ 470
tu@@ 469
women 469
week@@ 468
ma@@ 468
regul@@ 468
sible 468
ght 468
line 466
seen 465
ible 465
issu@@ 465
sen@@ 465
ished 464
full 464
Lord@@ 464
Sp@@ 464
standing 463
al. 463
blood 463
retur@@ 463
For@@ 462
people, 462
"G@@ 462
Pe@@ 462
ere 462
can@@ 462
or. 461
anyone 460
tif@@ 460
ness@@ 459
play@@ 459
cannot 459
ses 458
here 457
Comm@@ 457
On@@ 457
ality 457
thing 456
my@@ 456
An 456
night 456
vari@@ 455
red 455
during 455
day. 455
ies. 454
aking 454
..@@ 453
Wel@@ 453
says 452
since 452
sure 452
desig@@ 451
polic@@ 451
re 451
ized 451
"B@@ 451
himself 451
ired 450
turn 450
ort 450
again@@ 450
Aar@@ 449
discip@@ 449
per 449
nor 449
Jose@@ 448
jus@@ 448
serve 448
head 447
too 447
saf@@ 447
ad, 447
ink@@ 447
.[@@ 446
amp@@ 446
al, 446
money 446
), 446
partic@@ 446
best 445
Eng@@ 445
child 445
appoin@@ 445
show@@ 445
ik@@ 445
ounc@@ 444
appear@@ 444
ews 444
brother@@ 444
John 443
within 443
asi@@ 442
Israel. 441
ment. 441
life. 440
nations 440
present@@ 439
human 438
fre@@ 438
ann@@ 437
information 437
few 437
Br@@ 436
ce@@ 436
win@@ 436
tru@@ 436
oy@@ 435
front 435
tle 435
lim@@ 434
tice 434
Gr@@ 434
n, 434
continu@@ 434
thy 434
Me@@ 433
anted 432
lu@@ 432
ans@@ 432
ves 432
)@@ 432
tes@@ 432
free 431
e... 431
Some 431
Eli@@ 431
ano@@ 431
contro@@ 431
E 431
press@@ 430
leave 430
s." 430
husb@@ 429
having 429
% 429
one. 428
tin@@ 428
show 428
Fa@@ 428
ome 428
you're 427
answer@@ 427
sw@@ 427
didn't 427
god@@ 426
usi@@ 426
lack 425
ut 425
cha@@ 425
self 425
"What 425
ins 425
Per@@ 425
nation@@ 424
ined 424
ist 423
this, 423
-- 423
she@@ 423
By 422
ged 421
man, 421
ery 420
ening 420
ost@@ 420
En@@ 420
Qu@@ 419
ince 419
written 419
streng@@ 419
conf@@ 418
rev@@ 418
've 417
believe 416
ush@@ 416
or, 416
sin 415
speak 415
crow@@ 415
bi@@ 415
iver@@ 415
10 414
turned 414
Afric@@ 414
Ev@@ 414
chil@@ 413
far 413
hear 413
ond@@ 413
lab@@ 412
ended 411
site 410
art@@ 410
ph 410
priest 410
call 410
prob@@ 410
eli@@ 409
deliv@@ 409
change 409
national 408
small 408
sic@@ 408
important 408
20 408
flo@@ 408
yet 408
e! 407
fire@@ 407
mod@@ 407
near 406
provide 406
vic@@ 406
ask@@ 406
ached 405
time. 405
dom 404
Is@@ 404
second 404
port@@ 404
iet@@ 403
el, 403
estab@@ 403
terr@@ 403
ention 403
ites, 403
inst@@ 403
mean@@ 402
language 402
glo@@ 402
*@@ 402
open 401
rest 401
making 401
gold 400
ighty 400
people. 400
der@@ 400
friend@@ 400
od, 399
D 399
l, 399
esi@@ 399
African 398
lish 398
Because 398
cam@@ 398
servic@@ 398
Sec@@ 398
opp@@ 397
Le@@ 397
Are 397
cloth@@ 397
ress 396
pay 396
typ@@ 396
Holy 396
ure. 395
ban@@ 395
inher@@ 395
es; 394
spr@@ 393
cut 392
other@@ 392
stre@@ 392
n. 391
prac@@ 391
longer 391
holy 391
brother 391
ay, 391
ches 390
ave 390
Ser@@ 390
ack 390
ones 390
great@@ 389
vel@@ 389
tor 388
Solom@@ 387
means 387
ness. 387
wif@@ 386
fal@@ 386
blo@@ 386
I've 385
ung@@ 385
sav@@ 385
get@@ 385
case 384
May 384
send 384
cus@@ 384
ank 384
ver 383
looking 383
succ@@ 383
ending 383
kind@@ 383
meet 382
members 382
fall 382
Alm@@ 381
kingdom 381
again 381
port 381
Philistin@@ 380
day, 380
declares 380
sibil@@ 380
ad. 380
doc@@ 380
y's 379
concer@@ 379
eping 379
coven@@ 379
camp@@ 378
ement@@ 378
Jehov@@ 377
whether 377
ific@@ 377
ern@@ 377
country 376
large 375
ugg@@ 375
Pet@@ 375
enough 374
pass@@ 374
ence. 374
obe@@ 374
vir@@ 374
times 373
en's 373
"H@@ 373
ak 373
Pharao@@ 373
cros@@ 373
really 373
mother@@ 372
stood 372
imp@@ 372
hand, 371
& 370
ian 369
fur@@ 369
descendants 369
manag@@ 369
musi@@ 369
afra@@ 369
spe@@ 368
son, 368
time, 368
langu@@ 368
wit@@ 367
fire 367
whose 366
uti@@ 366
gif@@ 366
ade 366
thre@@ 365
Po@@ 365
ency 365
righteous@@ 364
daughter 364
Spirit 364
ess. 364
ru@@ 364
this@@ 364
support 364
believ@@ 364
ition@@ 364
wid@@ 364
fore, 363
nothing 363
based 363
book 363
ke@@ 362
doing 362
in. 362
mountain@@ 361
What's 361
health 360
exc@@ 360
real@@ 360
Ke@@ 358
ugh@@ 358
righte@@ 358
"This 358
effec@@ 358
lived 357
del@@ 357
on-@@ 357
already 356
drink 356
199@@ 356
priests 356
lan@@ 356
try 355
destroy@@ 355
Egypt 355
kind 355
I'll 354
hl@@ 354
Isa@@ 354
enter 354
doesn't 353
section 353
ast@@ 353
The@@ 353
$@@ 353
ouse@@ 353
follow 352
C 352
tic 352
using 352
ide@@ 352
destro@@ 352
Saul 352
ither 352
Sim@@ 352
ways 351
z 351
irc@@ 351
Res@@ 351
govern@@ 351
Im@@ 350
00@@ 350
better 350
cover@@ 349
ask 349
sacrific@@ 349
Ple@@ 349
ses@@ 349
listen 349
government 349
iah, 349
in, 348
ike 348
wond@@ 348
pun@@ 348
oper@@ 348
will@@ 348
na@@ 348
book@@ 348
proper@@ 347
killed 347
18@@ 347
feel 346
ouldn't 346
Eph@@ 346
pec@@ 346
mid@@ 346
view 345
someone 345
benef@@ 345
Lord, 345
half 345
Father 344
ros@@ 343
built 343
Make 343
Presid@@ 343
ez@@ 342
pa@@ 342
aj@@ 342
assemb@@ 342
icked 341
ided 341
up. 341
Thank 341
though@@ 341
lar@@ 341
sear@@ 341
makes 341
er's 340
out. 340
plan@@ 340
visi@@ 340
present 340
ple 340
return 339
leav@@ 339
employ@@ 339
speak@@ 339
ching 339
ats 339
experi@@ 338
ket@@ 338
you." 338
loye@@ 338
activ@@ 338
(1) 338
artic@@ 338
Tim@@ 337
joy 337
kings 337
ab 337
000 337
desi@@ 337
state 337
Africa 337
ety 337
entr@@ 337
Inter@@ 336
began 336
peri@@ 336
olit@@ 336
ural 336
der 336
bu@@ 336
avail@@ 336
roc@@ 335
a's 335
build 335
burn@@ 335
one, 335
overeign 335
eful 334
saying, 333
Therefore 333
eth 333
ener@@ 333
le: 333
prof@@ 333
faith 333
neigh@@ 332
jud@@ 332
offici@@ 332
suffer@@ 332
hundred 332
post@@ 331
beautiful@@ 331
l. 331
prepar@@ 331
ed; 331
viol@@ 331
.) 331
La@@ 331
tis@@ 330
12@@ 330
member 329
.. 329
person@@ 329
plain@@ 329
los@@ 329
including 329
high@@ 329
ems 328
swor@@ 328
sacr@@ 328
ess, 328
iver 328
ost 328
ements 328
filled 327
kill 327
life@@ 326
ity, 326
looked 326
years. 326
However, 326
something 325
ives 325
main@@ 325
12 325
cub@@ 325
laim@@ 324
Dr@@ 324
ich@@ 324
chur@@ 324
hist@@ 324
iting 323
save 323
eting 323
fect 323
Where 323
ease 322
Bar@@ 322
ley 322
ize 322
y: 322
business 322
fail@@ 322
* 321
meas@@ 321
sla@@ 321
lay 321
fear 320
chi@@ 320
protec@@ 320
ments 320
ness, 320
said@@ 320
30 320
anything 320
ams 319
"C@@ 319
toward 319
heaven 319
in-@@ 319
World 318
thousand 318
Sc@@ 317
is, 317
ter. 317
allow@@ 317
up, 317
Jer@@ 316
am, 315
Life 315
den@@ 315
point 315
yourself 314
there@@ 314
market@@ 314
with@@ 314
bar@@ 314
deter@@ 314
ics 313
Her@@ 313
Or@@ 313
lav@@ 313
list 312
old, 312
gh@@ 312
Acc@@ 311
Joshu@@ 310
room@@ 310
fore 310
tion, 310
basi@@ 310
Co@@ 309
ob 309
onom@@ 309
earch 309
contin@@ 309
ump@@ 308
anger 308
part@@ 308
ate. 308
ack@@ 308
said. 308
ar, 308
oo@@ 308
3) 307
owever, 307
ense 307
local 307
bus@@ 306
Di@@ 305
Love 305
service 305
Of 305
stituti@@ 305
T 305
numb@@ 304
anks 304
pal@@ 304
fut@@ 303
nigh@@ 303
wil@@ 303
ough 301
ouse 301
ing: 301
De@@ 301
ule 301
sci@@ 300
men@@ 300
Sa@@ 299
Mor@@ 299
video 298
Paul 298
sou@@ 298
lion 298
mind@@ 297
swe@@ 296
11@@ 296
bas@@ 295
ord 295
ines 295
ongs 294
Des@@ 293
ital 293
bow@@ 292
bal@@ 291
ank@@ 291
00 291
?@@ 291
oth 291
air@@ 290
ali@@ 290
abo@@ 290
die 289
hab@@ 289
trad@@ 288
bon@@ 287
Fin@@ 287
uring 287
on't 286
Ba@@ 286
Wor@@ 286
ire@@ 286
ini@@ 285
ar. 285
Ph@@ 284
inf@@ 284
uf@@ 284
tow@@ 284
Dis@@ 284
sul@@ 284
bl@@ 284
ze 284
angel 283
rop@@ 283
ner@@ 283
,' 282
ativ@@ 282
ote 282
Cour@@ 282
il. 282
dle 281
Chris@@ 281
ich 280
alleng@@ 280
Ger@@ 280
ats@@ 279
o-@@ 279
ith@@ 279
imin@@ 279
tas@@ 279
Sat@@ 278
website 278
lik@@ 278
i. 277
18 277
talk 277
List@@ 277
Ag@@ 277
aniz@@ 276
Cha@@ 276
e" 275
El@@ 275
Go@@ 275
el. 275
lac@@ 274
Min@@ 273
National 272
Rem@@ 271
Abra@@ 271
et. 270
os 270
angel@@ 270
bul@@ 269
15@@ 269
web@@ 269
ording 268
Wat@@ 267
mp@@ 267
S. 267
pay@@ 266
ed: 266
#@@ 266
Mon@@ 265
tem@@ 265
/ 265
ibe 265
There@@ 264
Rep@@ 264
ana@@ 264
ech@@ 263
e) 263
wo@@ 263
sex@@ 261
15 260
ots 260
had@@ 259
Ther@@ 259
(a) 259
ready 259
sity 258
ublic 258
pries@@ 258
"N@@ 257
hum@@ 257
na 256
hav@@ 256
Tel@@ 256
lay@@ 255
sent@@ 254
Jord@@ 254
dif@@ 254
net@@ 253
anti@@ 252
2. 252
No@@ 252
ata 251
Indi@@ 251
vide@@ 251
lon@@ 250
14@@ 249
differ@@ 249
_@@ 249
net 248
love. 247
ie 247
Gil@@ 246
ago 246
ange 245
ng@@ 245
ext 245
Bal@@ 245
overn@@ 244
oul@@ 244
4) 243
14 242
poin@@ 242
look@@ 241
ye 241
Joh@@ 241
ese 241
Hel@@ 240
enjam@@ 239
e.@@ 239
Cal@@ 239
X@@ 239
len@@ 239
de 238
N 238
cause 238
ray@@ 237
21 237
mag@@ 237
une 237
ign 236
(2) 234
Sab@@ 234
Wil@@ 234
25@@ 234
24@@ 234
atis@@ 233
13@@ 233
els 232
sive 232
Tit@@ 230
17@@ 230
esh@@ 230
unc@@ 229
toge@@ 229
lev@@ 228
lig@@ 228
igh 227
Mat@@ 227
16@@ 227
She@@ 227
som@@ 227
Jerem@@ 226
Ma@@ 226
ould 226
Jan@@ 225
suc@@ 225
Cap@@ 225
prot@@ 224
Med@@ 224
21@@ 224
omb@@ 223
16 222
Ne@@ 221
:3@@ 221
Sel@@ 219
Ben@@ 218
amil@@ 218
24 218
nal@@ 218
30@@ 216
11 216
Spir@@ 215
sib@@ 215
Vi@@ 214
ni@@ 214
au@@ 213
Ash@@ 213
lit@@ 212
]@@ 212
Bel@@ 211
?' 211
bey@@ 211
AN@@ 210
iness 210
ond 210
V 210
Gal@@ 209
Beth@@ 208
etim@@ 206
inj@@ 206
....@@ 206
Em@@ 205
avel@@ 204
s) 204
bet@@ 204
moun@@ 203
mine 202
ana 202
suf@@ 202
So@@ 201
L 200
ina 199
(1@@ 199
haz@@ 198
1. 198
Pa@@ 198
Sal@@ 198
inform@@ 198
ul, 198
sha@@ 197
a: 197
Pre@@ 197
mem@@ 196
P 195
22 195
ane 194
led@@ 194
ge@@ 194
yp@@ 193
mal@@ 193
Phil@@ 191
lef@@ 191
uch@@ 191
Abraham@@ 189
lob@@ 188
17 188
hhhh@@ 188
declar@@ 188
Home 187
!!! 187
desc@@ 187
13 187
eti@@ 187
leng@@ 186
M 186
(b) 186
memb@@ 185
hal@@ 185
ew 185
25 185
ime 185
ij@@ 184
B 184
Lab@@ 183
23@@ 183
Hez@@ 182
ase@@ 181
site. 181
lud@@ 180
Neb@@ 180
i) 179
oph@@ 176
Q@@ 175
Sar@@ 175
ning@@ 174
bea@@ 172
pul@@ 172
lose 172
SA@@ 170
thor@@ 170
uch 170
tig@@ 170
ile@@ 170
23 170
ema@@ 168
eve 168
thous@@ 168
1] 167
Lif@@ 166
ke 165
t: 165
Mal@@ 165
Mag@@ 165
tf@@ 164
22@@ 164
Ham@@ 164
ould@@ 164
fol@@ 164
lot@@ 163
> 163
v 163
ang 161
shad@@ 161
beli@@ 161
Bas@@ 161
wash@@ 161
c) 160
did@@ 160
asham@@ 159
ume 159
Jonath@@ 159
Nat@@ 159
umc@@ 158
H 158
augh@@ 157
IN@@ 156
ling@@ 156
ul 156
import@@ 156
fish@@ 155
sem@@ 155
wo 155
elin@@ 154
eign 154
_ 154
oth@@ 154
Mas@@ 154
vid@@ 154
Phar@@ 153
Asi@@ 153
Leb@@ 151
uz@@ 151
Na@@ 150
28@@ 150
Li@@ 149
Nam@@ 147
ink 147
Y 146
2) 145
50 144
shi@@ 144
-1@@ 144
eak 144
may@@ 143
ting@@ 142
Som@@ 141
sac@@ 141
G 141
ole 141
Heb@@ 141
ational 140
whe@@ 140
ela 139
ne 139
yet@@ 139
Af@@ 139
Angel@@ 138
anis@@ 137
;@@ 137
!! 137
R 136
ile, 136
a-@@ 136
Lit@@ 135
ama 135
sa 134
enj@@ 134
nes@@ 133
uke 133
ents@@ 133
eme 133
Ang@@ 133
a) 132
ba@@ 131
rics 131
I'@@ 130
hun@@ 130
nit@@ 130
May@@ 129
ith 128
LO@@ 128
nak@@ 127
K 127
descend@@ 127
Es@@ 126
= 125
"L@@ 124
lots 121
1.@@ 121
Kh@@ 120
eni@@ 120
a... 120
ise. 120
Beautiful 120
uph@@ 120
hh@@ 119
uk@@ 119
q@@ 118
??@@ 118
Sil@@ 117
Lib@@ 116
la 115
kil@@ 115
ham@@ 114
imb@@ 114
icin@@ 114
i-@@ 114
loy@@ 114
ll 114
uck 114
dv@@ 113
sak@@ 113
Del@@ 113
emph@@ 112
mak@@ 112
0. 111
U 111
F 110
fan@@ 109
↑ 109
osh@@ 108
u, 107
ony@@ 107
yel@@ 106
ta 106
<@@ 105
anan@@ 104
dren 104
nel@@ 103
@@@ 103
Fil@@ 102
oli@@ 102
bil@@ 102
wag@@ 101
ka 101
ile. 101
+ 101
eting@@ 100
Jon@@ 100
uth@@ 99
%@@ 99
&@@ 99
Tag@@ 99
Liv@@ 99
Mak@@ 98
itf@@ 98
ekel@@ 98
but@@ 98
wes@@ 98
til@@ 98
luc@@ 97
inis@@ 97
Inc@@ 97
lic 97
ley@@ 96
le-@@ 96
ih@@ 96
Worl@@ 95
endl@@ 95
X 94
Lam@@ 92
ise, 92
abet@@ 90
Aw@@ 90
+@@ 89
Vide@@ 89
Emp@@ 89
uy@@ 89
é@@ 89
Si@@ 89
nine 89
>@@ 89
ou 88
-E@@ 88
lib@@ 88
W 87
Bab@@ 87
ever, 87
wan@@ 86
ets@@ 86
nin@@ 86
eca@@ 85
elop@@ 85
Sin@@ 85
esig@@ 84
cov@@ 84
ye@@ 83
emal@@ 83
yes@@ 83
o: 82
eba 82
ene 81
Sing@@ 81
buy@@ 81
ube 80
eny@@ 80
ku@@ 80
sam@@ 79
wand@@ 79
Hol@@ 79
Les@@ 79
ive, 78
its@@ 78
ma 78
lak@@ 77
nd@@ 77
oto 76
lis@@ 76
tful 75
u. 75
oug@@ 74
ilo@@ 74
nab@@ 74
buk@@ 71
Long@@ 71
yi@@ 71
ben@@ 71
Len@@ 69
base 69
asha 69
fron@@ 69
ny@@ 69
ecause 69
etf@@ 68
oma 68
sat@@ 67
{@@ 67
isa 67
a? 67
· 66
i: 66
Let@@ 66
lag@@ 66
Live 66
b) 65
It@@ 65
siv@@ 65
ween 65
kno@@ 64
nj@@ 63
nom@@ 62
Fun@@ 62
thic@@ 61
naked 61
ini 61
iy@@ 60
andle 60
ali 60
bak@@ 60
Web@@ 60
kw@@ 58
ening@@ 58
Um@@ 58
Level 58
ani 58
rist@@ 58
a; 57
0, 57
dvo@@ 57
kh@@ 57
eline 57
ulu 57
andl@@ 56
ya 56
ete 56
alek@@ 54
Website 54
tinc@@ 54
tib@@ 53
о@@ 53
hat 53
lus@@ 53
phil@@ 53
ola 52
alo@@ 51
ala 51
abh@@ 51
=@@ 51
wav@@ 51
Sig@@ 50
Bea@@ 49
} 49
iph@@ 49
– 49
lom@@ 48
lo 48
uma 48
a." 48
°@@ 48
ena 47
ha, 47
a" 47
bes@@ 47
kan@@ 47
yal@@ 47
£@@ 47
a! 46
indl@@ 46
uj@@ 46
bian 46
и@@ 46
uv@@ 46
а@@ 45
nem@@ 45
│ 45
Bat@@ 44
ngin@@ 44
Besi@@ 43
-A@@ 43
ula 43
ona 43
Eg@@ 43
</@@ 42
Beautif@@ 42
tat@@ 41
ane. 40
ti 40
Ng@@ 40
sab@@ 40
ka@@ 40
ro 40
е@@ 39
lel@@ 39
~ 39
lil@@ 39
lo, 39
ati 39
wana 39
some@@ 39
asa 39
ya@@ 39
iny@@ 39
ー@@ 39
tam@@ 39
Sis@@ 39
za 38
Lem@@ 38
someth@@ 37
ita 37
–@@ 37
ha. 37
eliv@@ 36
unj@@ 36
ana. 36
ila 36
с@@ 36
•@@ 36
obe 36
wa 35
nas@@ 35
Levi 34
nex@@ 34
Bh@@ 34
ami 34
Sit@@ 34
Dav@@ 34
akh@@ 33
uh@@ 33
tful@@ 33
л@@ 33
aze 33
si 33
Z 32
Ts@@ 32
eni 32
sew@@ 32
ema 31
Babe 31
Ak@@ 31
Nak@@ 31
o? 31
ana, 31
ota 31
ano 30
J 30
o." 30
ni 30
zi 30
α@@ 30
ü@@ 30
lesi@@ 30
р@@ 29
н@@ 29
j 29
anj@@ 29
timb@@ 29
kul@@ 29
Sib@@ 28
Lis@@ 28
uto 28
ה@@ 28
Beng@@ 28
Far@@ 28
olo 28
esn't 28
oni 28
eman@@ 27
aya 27
u-@@ 27
q 27
eta 27
haw@@ 27
iya 27
á@@ 27
ari 27
Kwa@@ 27
we, 26
o; 26
ו@@ 26
wam@@ 26
wet@@ 26
~@@ 26
aka@@ 26
Ku@@ 25
@ 25
kon@@ 25
abul@@ 25
awe 25
ba 25
Afrik@@ 25
Leng@@ 25
ato 25
kab@@ 25
т@@ 25
ane, 24
ö@@ 24
nc@@ 24
ama, 24
€@@ 24
ˈ@@ 24
ル@@ 23
una 23
< 23
leph@@ 23
к@@ 23
bew@@ 23
ebo 23
abes@@ 23
Ut@@ 23
lw@@ 23
aku@@ 22
alo 22
eli 22
Mine 22
sis@@ 22
umph@@ 22
י@@ 22
ko 22
usa 22
aka 22
mang@@ 22
emat@@ 21
i; 21
Mahl@@ 21
elo 21
ン@@ 21
lol@@ 21
ongo 21
ints@@ 21
Isra@@ 21
é 21
ke, 21
udl@@ 21
# 21
alanga 21
sif@@ 21
′@@ 21
Lus@@ 20
д@@ 20
sas@@ 20
}@@ 20
uba 20
va 20
Bay@@ 20
Tin@@ 20
ika 20
bi 20
uts@@ 20
unti@@ 20
Q 20
—@@ 20
’@@ 20
neli@@ 19
ó@@ 19
nan@@ 19
─@@ 19
б@@ 19
imate 19
ο@@ 19
ko@@ 19
ima 18
aki 18
у@@ 18
abal@@ 18
§ 18
ä@@ 18
в@@ 18
aba 18
Â 18
ρ@@ 18
ej@@ 17
ā@@ 17
ahl@@ 17
estro@@ 17
Jak@@ 17
⁄@@ 17
ngi@@ 17
Lol@@ 17
tet@@ 17
angal@@ 17
fo 17
adi 17
п@@ 17
( 16
อ@@ 16
ñ@@ 16
ç@@ 16
eto 16
・@@ 16
lang@@ 16
lung@@ 16
babe 16
γ@@ 16
μ@@ 16
м@@ 16
า@@ 16
ン 15
waf@@ 15
ה 15
dle@@ 15
leb@@ 15
sha 15
bh@@ 15
i? 15
abi 15
ele 15
ja 15
ani, 15
anga 15
fa 14
ito 14
eva 14
├@@ 14
ikh@@ 14
atf@@ 14
ა@@ 14
ango 14
ashi 14
α 14
ا@@ 14
з@@ 14
tiph@@ 14
andz@@ 14
ela. 14
iki 14
uny@@ 14
﻿ 14
ekh@@ 13
ś 13
া@@ 13
emas@@ 13
† 13
aha 13
ini. 13
mo 13
ل@@ 13
ː@@ 13
Ema@@ 13
Lom@@ 13
→ 13
τ@@ 13
ร@@ 13
í@@ 13
ω@@ 13
‘@@ 13
dred 12
iko 12
× 12
フ@@ 12
シ@@ 12
ν@@ 12
lo. 12
ula. 12
teb@@ 12
ao@@ 12
。 12
а 12
isha 12
Lena 12
isa. 12
ί@@ 12
lub@@ 12
Vel@@ 12
alam@@ 12
ili 12
lent@@ 12
ा@@ 12
’ 12
ukh@@ 11
С@@ 11
phan@@ 11
เ@@ 11
kub@@ 11
yam@@ 11
awa 11
─ 11
emac@@ 11
ulum@@ 11
etin@@ 11
イ@@ 11
i." 11
oba 11
υ@@ 11
sang@@ 11
ingo 11
ela, 11
wab@@ 11
ə@@ 11
iti 11
“@@ 10
ッ@@ 10
oya 10
ื@@ 10
่@@ 10
г@@ 10
sey@@ 10
lenc@@ 10
リ@@ 10
Kun@@ 10
yin@@ 10
← 10
Kw@@ 10
æ@@ 10
É@@ 10
zin@@ 10
â@@ 10
angan@@ 10
ア@@ 10
unevent@@ 10
idl@@ 10
kun@@ 10
weli@@ 10
imi 10
oli 10
anye 10
wati 10
solo 10
テ@@ 10
Uy@@ 10
nesi@@ 10
ani. 10
·@@ 10
″@@ 10
я@@ 9
ィ@@ 9
ε@@ 9
omo 9
â 9
Siy@@ 9
neb@@ 9
iso 9
° 9
si. 9
م@@ 9
و@@ 9
bek@@ 9
ж@@ 9
odi 9
seb@@ 9
ス@@ 9
ク@@ 9
base@@ 9
Bek@@ 9
ti. 9
А@@ 9
shu@@ 9
Philis@@ 9
neti@@ 9
etse 9
bang@@ 9
dz@@ 9
bah@@ 9
eka 9
eni, 9
ь@@ 9
eM@@ 9
ա@@ 9
ı@@ 9
я 8
ς 8
ช@@ 8
bam@@ 8
ambo 8
ona, 8
$ 8
ng 8
bay@@ 8
uku@@ 8
iva 8
umi 8
thi 8
ś@@ 8
esha 8
ジ@@ 8
aka. 8
abe 8
И@@ 8
्@@ 8
wane 8
bo 8
wala 8
eti 8
amba 8
abo 8
oku 8
nil@@ 8
we. 8
ako 8
” 8
antf@@ 8
uko 7
è@@ 7
yay@@ 7
ι@@ 7
uya 7
ako@@ 7
eki 7
^ 7
letin@@ 7
eli, 7
itha 7
ining@@ 7
Buk@@ 7
オ@@ 7
ス 7
à@@ 7
ona. 7
ô@@ 7
isa, 7
ホ@@ 7
ト@@ 7
uli 7
ي@@ 7
ini, 7
の@@ 7
hus@@ 7
ر@@ 7
и 7
Lel@@ 7
Hl@@ 7
্@@ 7
ohl@@ 7
ú@@ 7
η@@ 7
נ@@ 7
onga 7
П@@ 7
ภ@@ 7
obo 7
Kub@@ 7
Nan@@ 7
ɑ@@ 7
ნ@@ 7
ი 7
レ@@ 7
baf@@ 7
§@@ 6
uni 6
რ@@ 6
พ@@ 6
ugu 6
akan@@ 6
プ@@ 6
ョ@@ 6
u; 6
ï@@ 6
ti, 6
ラ@@ 6
δ@@ 6
kwel@@ 6
enta 6
Р@@ 6
ono 6
naw@@ 6
beautif@@ 6
¶ 6
ミ@@ 6
aye 6
「@@ 6
ャ@@ 6
alo. 6
€ 6
Φ@@ 6
akam@@ 6
ō@@ 6
ή@@ 6
е 6
Σ@@ 6
λ@@ 6
έ@@ 6
σ@@ 6
Ν@@ 6
ァ@@ 6
| 6
้@@ 6
bob@@ 6
● 6
nib@@ 6
utf@@ 6
ubh@@ 6
wa, 6
usha 6
К@@ 6
ulo 6
ษ@@ 6
ナ@@ 6
si, 6
oka 6
サ@@ 6
ku 5
eS@@ 5
κ@@ 5
н 5
ล@@ 5
ง@@ 5
ع@@ 5
ankh@@ 5
œ@@ 5
anga. 5
М@@ 5
ū@@ 5
^@@ 5
ド@@ 5
ṣ@@ 5
oni. 5
ula, 5
wen@@ 5
о 5
ê@@ 5
ָ@@ 5
ente 5
kum@@ 5
oti 5
avi 5
kanye 5
nik@@ 5
น@@ 5
م 5
ズ@@ 5
Л@@ 5
र@@ 5
Nguyen 5
Δ@@ 5
isi 5
ī@@ 5
usal@@ 5
Lok@@ 5
ati, 5
akhona 5
ʃ@@ 5
eN@@ 5
য@@ 5
ক@@ 5
ি@@ 5
iwe 5
anti 5
wami 5
uso 5
О@@ 5
ayo 5
ł@@ 5
umel@@ 5
Б@@ 5
ø@@ 5
Kut@@ 5
uka 5
tj@@ 5
ت@@ 5
umba 5
ʊ@@ 5
chub@@ 5
﻿@@ 5
ի@@ 5
ி@@ 5
ม@@ 5
ч@@ 5
nges@@ 5
×@@ 5
kho@@ 5
ე@@ 5
sik@@ 5
|@@ 5
φ@@ 5
भ@@ 5
Π@@ 5
《@@ 5
》 5
ロ@@ 5
ɛ@@ 5
yas@@ 4
”@@ 4
ლ@@ 4
ati. 4
Â@@ 4
atsi 4
ikw@@ 4
ল@@ 4
aka, 4
nga@@ 4
й 4
— 4
ili. 4
்@@ 4
LOR@@ 4
lal@@ 4
ṇ@@ 4
î@@ 4
angeni 4
oko 4
ュ@@ 4
′ 4
rom 4
hlan@@ 4
ζ@@ 4
ɪ@@ 4
kuhl@@ 4
ك@@ 4
ehl@@ 4
ю@@ 4
Η@@ 4
Ι@@ 4
usi 4
anga, 4
akw@@ 4
Т@@ 4
Μ@@ 4
χ@@ 4
Kus@@ 4
β@@ 4
ã@@ 4
ボ@@ 4
」 4
ส@@ 4
ง 4
ი@@ 4
ּ@@ 4
Á@@ 4
ala. 4
esiv@@ 4
ր 4
ビ@@ 4
ş@@ 4
‐@@ 4
ー 4
ح@@ 4
uhl@@ 4
inga 4
ipha 4
ayi 4
ulu, 4
د@@ 4
チ@@ 4
ว@@ 4
ี@@ 4
ニ@@ 4
khon@@ 4
ش@@ 4
त@@ 4
ngu@@ 4
ebus@@ 4
uku 4
isho 4
Afr@@ 4
š 4
ά@@ 4
タ@@ 4
ข@@ 4
マ@@ 4
iya, 3
ウ@@ 3
ォ@@ 3
Ε@@ 3
ό@@ 3
ბ@@ 3
aya, 3
ahle 3
lelis@@ 3
ala, 3
apha 3
い@@ 3
ض@@ 3
inkh@@ 3
[ 3
Ung@@ 3
Ò@@ 3
ì@@ 3
ī 3
iswa 3
shay@@ 3
akha 3
ğ@@ 3
д 3
ワ@@ 3
バ@@ 3
ṛ@@ 3
eku 3
【@@ 3
】@@ 3
ω 3
カ@@ 3
ケ@@ 3
ج@@ 3
下@@ 3
ザ@@ 3
ubo 3
、 3
± 3
श@@ 3
Α@@ 3
आ@@ 3
eni. 3
й@@ 3
livi 3
с 3
alele 3
হ@@ 3
়@@ 3
leti@@ 3
ত@@ 3
文@@ 3
loph@@ 3
etsi 3
yen@@ 3
โ@@ 3
ē@@ 3
士@@ 3
ш@@ 3
hamb@@ 3
kuze 3
א@@ 3
ブ@@ 3
¿ 3
utif@@ 3
コ@@ 3
ռ@@ 3
ջ 3
ы@@ 3
iw@@ 3
ย@@ 3
ド 3
ע@@ 3
eku@@ 3
ن@@ 3
د 3
alo, 3
ā 3
ë@@ 3
bamb@@ 3
etive 3
č@@ 3
kam@@ 3
ր@@ 3
ո@@ 3
ւ@@ 3
պ@@ 3
ե@@ 3
andza 3
udv@@ 3
elek@@ 3
̄ 3
வ@@ 3
Š@@ 3
ป@@ 3
wa. 3
ihl@@ 3
้ 3
к 3
エ@@ 3
Wab@@ 3
キ@@ 3
iwa 3
ب@@ 3
ύ@@ 3
å@@ 3
ソ@@ 3
ż@@ 3
Kuc@@ 3
cala 3
ზ@@ 3
si: 3
ベ@@ 3
ड@@ 3
ि@@ 3
ज@@ 3
π@@ 3
ō 3
lena 3
モ@@ 3
labal@@ 3
প@@ 3
ন@@ 3
{ 3
ब@@ 3
oni, 3
Ä@@ 3
ხ@@ 3
न@@ 3
ा 3
anya 3
labam@@ 3
ル 3
》@@ 3
kim@@ 3
س@@ 3
angana 2
dze 2
kuy@@ 2
ペ@@ 2
longu@@ 2
ahamba 2
¿@@ 2
撒@@ 2
上@@ 2
约@@ 2
tsa 2
あ@@ 2
Ø@@ 2
ব@@ 2
ম@@ 2
ukw@@ 2
У@@ 2
nome 2
ق@@ 2
ქ@@ 2
თ@@ 2
უ@@ 2
©@@ 2
alel@@ 2
セ@@ 2
dla, 2
ń@@ 2
த@@ 2
ா@@ 2
ல@@ 2
asi 2
unga 2
yang@@ 2
İ@@ 2
atse 2
¢ 2
ム@@ 2
ְ@@ 2
申@@ 2
na-@@ 2
ט@@ 2
ת@@ 2
kug@@ 2
℞@@ 2
ム 2
je 2
dzi 2
ḏ 2
isele 2
liph@@ 2
ら@@ 2
wane, 2
ز@@ 2
ه 2
代@@ 2
、@@ 2
Æ@@ 2
े@@ 2
ण@@ 2
ी@@ 2
li>@@ 2
hlobo 2
bem@@ 2
lok@@ 2
hla 2
etj@@ 2
À 2
Ф@@ 2
ngit@@ 2
kut@@ 2
ц@@ 2
щ@@ 2
ubi 2
weni 2
ু@@ 2
ে 2
► 2
Davide 2
afan@@ 2
ò 2
buso 2
স@@ 2
ষ@@ 2
ngul@@ 2
た@@ 2
し@@ 2
い 2
ј@@ 2
nay@@ 2
kukh@@ 2
Α 2
│@@ 2
韩@@ 2
人@@ 2
如@@ 2
日@@ 2
ค@@ 2
は 2
は@@ 2
kuph@@ 2
lasi@@ 2
英@@ 2
ă@@ 2
sek@@ 2
ù 2
elela 2
ח@@ 2
כ@@ 2
り@@ 2
andv@@ 2
yem@@ 2
ト 2
uM@@ 2
օ@@ 2
в 2
bona 2
ط@@ 2
idz@@ 2
ต@@ 2
์ 2
dla 2
ف@@ 2
ḥ@@ 2
द@@ 2
र 2
ibon@@ 2
akal@@ 2
դ@@ 2
ք@@ 2
ա 2
isela 2
¡@@ 2
ý 2
elive 2
weny@@ 2
ъ@@ 2
ž@@ 2
ɡ@@ 2
Н@@ 2
ל@@ 2
ப@@ 2
ள@@ 2
ο 2
ั@@ 2
น 2
ы 2
−@@ 2
“ 2
ไ@@ 2
emag@@ 2
ֹ@@ 2
hlab@@ 2
eso 2
მ@@ 2
ali, 2
goli@@ 2
ـ@@ 2
ʌ@@ 2
▼ 2
û 2
า 2
atj@@ 2
nalo@@ 2
Ç@@ 2
ø 2
itj@@ 2
ห@@ 2
kwa@@ 2
ekw@@ 2
imu 2
¶@@ 2
़@@ 2
इ@@ 2
ß@@ 2
swa 2
第@@ 2
আ@@ 2
ি 2
ভ@@ 2
eko 2
т 2
ս@@ 2
ゴ@@ 2
elil@@ 2
ष@@ 2
ग@@ 2
indz@@ 2
ู@@ 2
odv@@ 2
Ä 2
ं@@ 2
ग 2
გ@@ 2
დ@@ 2
і@@ 2
қ@@ 2
ele. 2
utsi 2
ɒ@@ 2
ambe 2
発@@ 2
音@@ 2
を@@ 2
聞@@ 2
く@@ 2
例@@ 2
帳@@ 2
に@@ 2
追@@ 2
加 2
ʒ@@ 2
Kuhl@@ 2
Manj@@ 2
đ@@ 2
akul@@ 2
ь 2
― 2
ु@@ 2
म 2
म@@ 2
ד@@ 2
ele, 2
ungu 2
מ@@ 2
ili, 2
Κ@@ 2
weni, 2
bong@@ 2
Cha 2
wang@@ 2
ф@@ 2
atim@@ 2
Ö@@ 2
ς@@ 2
siy@@ 2
tiny@@ 2
ゲ@@ 2
朵@@ 2
य@@ 2
ர@@ 2
் 2
м 2
kus@@ 2
ن 2
ὐ@@ 2
ã 2
க@@ 2
ಬ@@ 1
ಡ@@ 1
ಗ@@ 1
emab@@ 1
ギ@@ 1
ansi 1
ュ 1
ÿ@@ 1
年@@ 1
lilo 1
‖ 1
ძ@@ 1
ო@@ 1
ა 1
È@@ 1
Ï@@ 1
Ş 1
∗ 1
ʼ@@ 1
sita 1
◇ 1
べ@@ 1
এ@@ 1
ako, 1
ه@@ 1
ة 1
г 1
დ 1
他@@ 1
们@@ 1
宣@@ 1
誓@@ 1
忠@@ 1
实@@ 1
履@@ 1
行@@ 1
自@@ 1
己@@ 1
的@@ 1
职@@ 1
责@@ 1
Ó 1
Д@@ 1
á 1
Mosi 1
khun@@ 1
elel@@ 1
eveni 1
asho 1
￼ 1
nang@@ 1
இ@@ 1
ி 1
wako 1
ukulwane 1
ungo 1
Ђ@@ 1
林@@ 1
前@@ 1
kwakh@@ 1
abona 1
̄@@ 1
ukela 1
andze 1
ý@@ 1
Jerusal@@ 1
Ø 1
teku@@ 1
ม 1
そ@@ 1
ラ 1
utj@@ 1
خ@@ 1
ا 1
Ά@@ 1
yeb@@ 1
ü 1
】 1
ekile 1
dza 1
Ψ@@ 1
Jesu 1
च@@ 1
य 1
ή 1
yase 1
ɠ@@ 1
ù@@ 1
λ 1
➢ 1
ポ@@ 1
ノ 1
tsi 1
ত 1
ছ@@ 1
leli@@ 1
利@@ 1
ả 1
inhl@@ 1
র 1
け@@ 1
こ 1
۵@@ 1
预@@ 1
备@@ 1
件 1
kuba 1
beng@@ 1
elwa 1
kush@@ 1
abo, 1
Θ@@ 1
দ@@ 1
ব 1
株@@ 1
式@@ 1
会@@ 1
社@@ 1
Ω@@ 1
wane. 1
aso 1
Ì@@ 1
hlahla 1
デ@@ 1
北@@ 1
权@@ 1
惨@@ 1
无@@ 1
道 1
竟@@ 1
不@@ 1
非@@ 1
洲@@ 1
难@@ 1
民 1
国@@ 1
之@@ 1
眼 1
朝@@ 1
鲜@@ 1
报@@ 1
网 1
보@@ 1
츠@@ 1
와@@ 1
나 1
대@@ 1
통@@ 1
령 1
北 1
인@@ 1
권@@ 1
후@@ 1
퇴@@ 1
관@@ 1
계@@ 1
유@@ 1
지 1
가@@ 1
치 1
없@@ 1
었@@ 1
다@@ 1
연@@ 1
합@@ 1
뉴@@ 1
스 1
ngel@@ 1
烈@@ 1
火@@ 1
歌 1
angani 1
embu 1
ạ@@ 1
kuv@@ 1
® 1
‐ 1
ּ 1
ם@@ 1
</li> 1
み@@ 1
尼@@ 1
‹ 1
→@@ 1
ق 1
ngen@@ 1
Ë@@ 1
wano 1
lona 1
ז@@ 1
ן@@ 1
eke 1
Å 1
dzala 1
Nguy@@ 1
ễ@@ 1
ữ@@ 1
غ@@ 1
ambi 1
व@@ 1
进@@ 1
步@@ 1
『@@ 1
Ս@@ 1
ի 1
Բ@@ 1
Վ@@ 1
徒@@ 1
ṇ 1
Î@@ 1
cane 1
sikh@@ 1
ᵑ@@ 1
ǀ@@ 1
khulu. 1
Č@@ 1
u? 1
ö 1
צ@@ 1
ת 1
ு@@ 1
ன@@ 1
த 1
ெ@@ 1
Ş@@ 1
ใ@@ 1
Ե@@ 1
ն 1
Կ@@ 1
ն@@ 1
դ 1
○ 1
ő@@ 1
khaya 1
akub@@ 1
ヘ@@ 1
∞ 1
saka@@ 1
な 1
ć@@ 1
yena 1
׳@@ 1
iphi 1
inika 1
ს@@ 1
₹@@ 1
hlangan@@ 1
Simphiwe 1
民@@ 1
」@@ 1
就@@ 1
医 1
ĺ 1
Õ@@ 1
ô 1
Đ@@ 1
umo 1
tfu 1
emad@@ 1
ـ 1
ɜ@@ 1
उ@@ 1
uta 1
։ 1
siph@@ 1
ξ 1
Ê 1
akhosi 1
փ@@ 1
lakh@@ 1
ami, 1
lase@@ 1
khulu 1
dlo 1
ィ 1
ɾ@@ 1
ɣ@@ 1
Ξ@@ 1
isiwe 1
akazi 1
aka-@@ 1
※ 1
elene 1
ulw@@ 1
nen@@ 1
ک@@ 1
ی@@ 1
ิ@@ 1
ú 1
チ 1
⟶ 1
cwele 1
dlu 1
Kuy@@ 1
न 1
你 1
ῶ@@ 1
۱@@ 1
ậ@@ 1
筷@@ 1
子 1
章 1
zinga 1
页 1
ू@@ 1
ल 1
kuf@@ 1
る@@ 1
か@@ 1
ぜ 1
uva 1
য 1
⇒ 1
决@@ 1
定@@ 1
是@@ 1
否@@ 1
付@@ 1
款@@ 1
나@@ 1
비@@ 1
Έ@@ 1
ে@@ 1
ন 1
র@@ 1
Օ@@ 1
۵ 1
►@@ 1
ilanga 1
द 1
ख@@ 1
জ@@ 1
（@@ 1
動@@ 1
画 1
Υ@@ 1
Ο 1
Մ@@ 1
ṭ@@ 1
umny@@ 1
կ 1
ゼ@@ 1
omu 1
ह 1
<li>@@ 1
ǫ@@ 1
Kul@@ 1
め@@ 1
が@@ 1
ち@@ 1
ゅ@@ 1
nguy@@ 1
imph@@ 1
ो@@ 1
ც@@ 1
у 1
फ@@ 1
ो 1
adz@@ 1
∘ 1
◊ 1
inye 1
í 1
ku-@@ 1
beb@@ 1
ะ@@ 1
ธ@@ 1
▼@@ 1
ʂ 1
ɕ@@ 1
Kung@@ 1
atsi: 1
ヨ@@ 1
ダ@@ 1
ỳ@@ 1
τ 1
Nging@@ 1
onkh@@ 1
kuc@@ 1
Davide, 1
х@@ 1
sesi@@ 1
ć 1
khuluma 1
ى 1
Ė@@ 1
lokw@@ 1
ガ@@ 1
zuz@@ 1
š@@ 1
andvo 1
त 1
ओ 1
ɐ 1
ב@@ 1
⟨@@ 1
⟩ 1
ჯ@@ 1
dlela 1
ר@@ 1
ű@@ 1
› 1
∞@@ 1
メ@@ 1
パ@@ 1
р 1
ө@@ 1
э@@ 1
wem@@ 1
dzab@@ 1
ψ 1
л 1
ア 1
۳@@ 1
umbula 1
Ś@@ 1
atsi. 1
enga 1
gomo 1
uhla 1
展@@ 1
示@@ 1
グ@@ 1
þ@@ 1
ヴ@@ 1
講@@ 1
演 1
太@@ 1
¥@@ 1
ด@@ 1
emba 1
uti 1
■ 1
す@@ 1
タ 1
ی 1
Τ@@ 1
Ρ@@ 1
Σ 1
ˌ@@ 1
́@@ 1
ᵐ@@ 1
ʱ@@ 1
ɓ@@ 1
ツ 1
ą@@ 1
uleko 1
Ь 1
amu 1
ngam@@ 1
Ο@@ 1
Lesi@@ 1
ū 1
wati@@ 1
פ@@ 1
ק@@ 1
wini 1
Ű@@ 1
Sikh@@ 1
ミ 1
∼ 1
Ո@@ 1
տ@@ 1
Ζ@@ 1
abula 1
ェ@@ 1
yab@@ 1
sakh@@ 1
ォ 1
phi 1
说@@ 1
明@@ 1
eli. 1
umbi 1
gcina 1
玻@@ 1
瑰@@ 1
皆@@ 1
有@@ 1
刺 1
Ī@@ 1
ר 1
が 1
akat@@ 1
leting@@ 1
अ@@ 1
ং@@ 1
া 1
ও@@ 1
জ 1
akala 1
esi 1
ந@@ 1
ீ@@ 1
akaz@@ 1
ν 1
­@@ 1
sikati 1
weni. 1
θ@@ 1
khash@@ 1
kwen@@ 1
iwo 1
emv@@ 1
王@@ 1
enu 1
っ@@ 1
ゃ@@ 1
elana 1
kuts@@ 1
haza 1
walo 1
ェ 1
⊥@@ 1
wac@@ 1
半@@ 1
蔵@@ 1
門 1
五@@ 1
kung@@ 1
ĕ@@ 1
ز 1
ֲ@@ 1
ὴ 1
ك 1
ณ 1
イ 1
ザ 1
ebh@@ 1
ơ@@ 1
ingi 1
本@@ 1
− 1
ვ@@ 1
andla, 1
ukut@@ 1
✠ 1
リ 1
全 1
Г@@ 1
ヤ 1
ó 1
ahla 1
À@@ 1
elo. 1
lobh@@ 1
η 1
Ã@@ 1
چ@@ 1
sho 1
प@@ 1
ी 1
क@@ 1
ल@@ 1
ब 1
ulwa 1
ف 1
ழ@@ 1
ை 1
hamba 1
Ning@@ 1
inik@@ 1
ekela 1
ŋ@@ 1
ʻ@@ 1
