the
of
to
and
a
in
.
t@@
s@@
is
b@@
S@@
ed
al@@
y@@
,
The
L@@
in@@
m@@
n@@
i@@
el@@
M@@
em@@
N@@
e@@
s
ab@@
l@@
be
B@@
i
o
you
c@@
w@@
f@@
e.
e,
"@@
ku@@
I
for
um@@
en@@
am@@
at@@
u@@
d@@
e
ing
o@@
on
k@@
p@@
an@@
ul@@
kutsi
will
es
ng@@
it@@
on@@
-
g@@
a@@
il@@
T@@
h@@
that
ak@@
is@@
as@@
et@@
a,
le@@
ela
a.
im@@
(@@
are
with
r@@
ang@@
si@@
A@@
H@@
he
:
C@@
un@@
-@@
ar@@
ing@@
not
er@@
D@@
v@@
ay@@
ic@@
it
u
es@@
y
his
ele
o,
lo@@
o.
ac@@
your
we
R@@
an
ut@@
was
ung@@
kw@@
isa
W@@
E@@
er
as
kh@@
K@@
eni
wa@@
have
?
ph@@
us@@
ent@@
th@@
P@@
;
or
wa
i,
t
from
re@@
s.
j@@
ib@@
ala
ek@@
sh@@
ini
Ng@@
aw@@
li@@
they
G@@
lab@@
all
ani
ol@@
ag@@
hl@@
's
by
om@@
at
my
ad@@
one
ub@@
st@@
F@@
al
let@@
or@@
eku@@
aph@@
ti@@
who
eb@@
'@@
uy@@
)
eng@@
ik@@
z@@
J@@
."
...
esi@@
i.
ch@@
s,
ed@@
ile
tr@@
ane
!
their
ana
uk@@
I@@
ob@@
nem@@
kut@@
akh@@
kul@@
se@@
con@@
ig@@
id@@
av@@
af@@
Y@@
iy@@
U@@
“@@
ise
kanye
ats@@
iv@@
ation
les@@
lam@@
lesi@@
be@@
aku@@
O@@
this
"
ts@@
if@@
has
ema@@
ot@@
ash@@
elo
ha@@
ers
V@@
amb@@
tin@@
ula
.@@
ly
emb@@
ate
eka
kub@@
ati
3@@
we@@
len@@
ro@@
lel@@
aba
He
sit@@
n
ur@@
en
na@@
Nkulunkulu
ish@@
k
ati@@
loku@@
le
h
out
were
wal@@
eli
had
A
lom@@
them
d
uc@@
do
leng@@
nal@@
m
but
ed.
u,
iph@@
ew@@
ted
dl@@
LORD
ts
asi@@
2@@
futsi
4@@
ir@@
es.
ngem@@
ahl@@
me
ne@@
uma
ec@@
weni
and@@
In@@
any@@
ona
ve
eli@@
for@@
awu@@
him
eke
anc@@
ako
uka
dv@@
ent
neku@@
inc@@
ngobe
ey@@
up
Simakadze
ok@@
alo
oc@@
ev@@
ap@@
khona
ngeku@@
tf@@
ah@@
iso
5@@
op@@
ali
es,
isi@@
ine
wab@@
so
God
enta
ex@@
od@@
ant@@
u.
what
ama
bab@@
lem@@
In
6@@
l
iny@@
yeku@@
os@@
ihl@@
ong@@
ter@@
atsi
ra@@
It
et
kuy@@
Sh@@
ase
no
la@@
gr@@
dz@@
ed,
y.
az@@
king
qu@@
bo@@
Th@@
se
atf@@
th
can
abo
usi@@
no@@
isi
ye
elwa
t.
low@@
am
umb@@
tim@@
ake
watsi:
kodvwa
sin@@
etin@@
uph@@
p
net@@
kung@@
2
ikh@@
ear@@
7@@
enc@@
pl@@
kwem@@
eti@@
ow@@
people
iswa
ou@@
y,
aka@@
Kh@@
end@@
And
ind@@
tion
ale
khul@@
:@@
wat@@
ngal@@
us
Um@@
been
Em@@
res@@
e:
They
its@@
ngu@@
andz@@
our
pr@@
etf@@
its
ing.
This
1
neb@@
Z@@
love
per@@
You
nobe
uhl@@
8@@
like
man
sa@@
ar
when
ity
her
lw@@
sp@@
about
eph@@
onkhe
ep@@
But
ath@@
way@@
Ph@@
ug@@
sel@@
anga
e-@@
ef@@
t,
there
a-@@
make
lol@@
able
age
eg@@
into
abh@@
njeng@@
nome
go@@
lob@@
kube
long@@
ri@@
kum@@
te@@
bantfu
dis@@
kun@@
ies
ist@@
said
nak@@
'
x@@
if
uny@@
yem@@
ated
lapho
ite
ting
indz@@
me@@
9@@
Ab@@
sim@@
3
abe
bay@@
aka
ike
yini
1@@
si
ence
because
Ch@@
Then
?"
our@@
g
elwe
kuph@@
bang@@
oni
e;
andla
min@@
seku@@
el
ili
Jesu
tem@@
any
ay
also
ehl@@
dla
wen@@
come
ami
nang@@
pro@@
ance
son
eta
When
dze
may
eny@@
lic@@
We
ov@@
Jesus
ing,
day
bat@@
wel@@
ika
which
nam@@
fun@@
iz@@
par@@
go
Im@@
Ar@@
co@@
other
Ku@@
ngiy@@
est
khulu
lov@@
Kodvwa
ile,
leli@@
ny@@
bal@@
/@@
kus@@
er.
umuntfu
time
St@@
itf@@
,@@
would
uts@@
over
So
awub@@
live
ngul@@
ya@@
5
take
cr@@
201@@
wane
kuze
ud@@
iya
ter
aya
awo
0@@
usa
man@@
tal@@
mon@@
those
get
umel@@
imb@@
ents
ema-@@
e?
ente
est@@
must
wor@@
b
sa
oy@@
ukh@@
lal@@
kute
loko
liv@@
sal@@
Lo@@
tonkhe
made
yin@@
ther@@
sib@@
ih@@
If
rec@@
nel@@
ment
letin@@
For
8
wh@@
]
before
Bh@@
An@@
9
did
ene
khosi
atsa
ary
site
tit@@
dr@@
nje
against
0
4
ile.
il
ip@@
iwe
com@@
ngum@@
ong
lang@@
adz@@
nas@@
6
lin@@
fe@@
cal@@
d.
web@@
er,
men
acc@@
antfu
ely
Un@@
to@@
ful@@
obe
ubh@@
ice
ning
ley@@
sem@@
wam@@
ess
beku@@
ant
7
wa,
‘@@
teku@@
she
ue
bonkhe
ah
lon@@
esh@@
wan@@
Simakadze,
ch
know
ial
ngit@@
ings
rel@@
atj@@
di@@
les
gc@@
ad
bu@@
What
ure
te
ete
las@@
car@@
,"
ill@@
omb@@
bh@@
ase@@
kakhulu
[@@
these
ez@@
Jes@@
ush@@
yal@@
weku@@
he@@
kufanele
kwal@@
r
x
you@@
19@@
ena
own
aj@@
sing@@
ono
ard@@
you,
bese
ess@@
ast
de@@
oko
it.
ge
c
went
nesi@@
ule
ekw@@
wakh@@
ibh@@
kumele
tic@@
endv@@
ulo
all@@
said,
came
on.
land
ard
ach@@
ngel@@
sig@@
dza
ten@@
bon@@
ia
pre@@
wa.
str@@
ons
sikhatsi
ty
le.
ally
tfo
There
ako.
andza
lu@@
led
ani@@
olo
ned
ata
of@@
nema@@
).
endl@@
s:
eni,
br@@
uv@@
Am@@
igh@@
ngabe
elin@@
ain@@
a;
comm@@
id
down
dvodzana
more
unga
ous
bel@@
give
should
konkhe
do@@
.'
ered
hle
put
ij@@
ela,
comp@@
tiv@@
en,
Lab@@
col@@
hi@@
uke
eth@@
si:
ima
sen@@
on,
then
long
good
indze
anye
than
kwent@@
ive
up@@
uf@@
use
him,
bakh@@
My
ting@@
ea@@
i-@@
pos@@
ta@@
att@@
etim@@
two
dec@@
pe@@
sive
asi
ini,
new
emkhatsini
umela
le,
Wh@@
abi
kuv@@
yel@@
adv@@
ord@@
bas@@
eti
It's
seb@@
sil@@
sew@@
ful
ket@@
end
was@@
iko
sikh@@
Con@@
uta
Ngiy@@
en.
e."
eni.
a?
see
umsa
oun@@
tsetfo
awuba
Kut@@
ekela
law@@
eh@@
ation@@
each
mor@@
ute
some
ever
Do
ning@@
por@@
e's
amba
ans
netin@@
ver@@
years
where
etsemb@@
way
kuf@@
su@@
hlaba
ela.
As@@
wem@@
ina
Bo@@
kukh@@
..
very
Al@@
fan@@
abo@@
Ngako
iswe
gu@@
njengobe
Kul@@
etfu
anj@@
eleni
ness
*
iti@@
ry
ngen@@
kahle
ight
only
Kw@@
after
ze
elela
O
lil@@
tive
ako,
ume
ita
bek@@
sc@@
ini.
20@@
d,
tel@@
utsi
untfu
mar@@
say@@
wati
abul@@
ic
ish
vi@@
Mar@@
nging@@
you.
utf@@
ema
hol@@
ipha
back
hlab@@
sur@@
name
hh@@
imph@@
ose
lif@@
Ung@@
ations
khon@@
si,
nj@@
tor@@
wena
ekh@@
kweku@@
them.
over@@
--@@
a:
th.
akw@@
him.
siy@@
how
How
e!
ngi@@
fo@@
inter@@
ho@@
ks
Lom@@
through
ye@@
sec@@
ame
work
akhe
inkhosi
ngas@@
atsi:
New
I'm
rem@@
fac@@
emal@@
inye
land@@
akala
want
ets@@
set@@
let
akal@@
ling@@
does
anti
Mo@@
them,
As
ating
etsa
nay@@
lapha
baph@@
house
lan@@
w
yakhe
noma
serv@@
cre@@
akhul@@
awul@@
ani,
many
...@@
tj@@
him@@
als
uku
umo
!"
form@@
we,
ukela
bac@@
ato
Sib@@
we.
ill
tre@@
ace
even
off@@
old
?@@
Pro@@
ola
fundz@@
wang@@
the@@
yet@@
clo@@
ce
Les@@
shall
ban@@
used
unye
lit@@
tion@@
kwel@@
sic@@
kuhl@@
fut@@
ikela
great
ngesikhatsi
mine
set
sid@@
enti
kan@@
hamba
labab@@
dzi
10@@
po@@
isela
.”
Sim@@
lat@@
fa@@
etse
first
itsi
ito
th,
yen@@
i?
endz@@
father
_
sebenti
them@@
arm@@
ying
ir
All
tab@@
place
ini@@
LORD,
200@@
ear
ondz@@
so@@
alwa
antf@@
takh@@
me,
David
seng@@
ngekw@@
bre@@
yonkhe
tsi
"I
yeb@@
hamb@@
•
mo@@
ep
siv@@
khatsi
ba@@
nab@@
ekhatsi
Tr@@
Israel
plac@@
kuc@@
ngenca
life
now
nen@@
her@@
sub@@
days
tif@@
cle@@
cour@@
going
hlobo
hear@@
ya
ory
ekel@@
ayo
ha,
dlela
leting@@
Sam@@
isebenti
nat@@
word
enti@@
bur@@
uz@@
k.
emph@@
fol@@
loku
ube
ta
among
uba
ail@@
Jud@@
sed
iya,
-A@@
ngalo@@
cit@@
wase
watsi
usi
utsi:
haz@@
sion
ass@@
ds
til@@
de
tions
under
ation.
andl@@
don't
ther
ange
nget@@
just
ari@@
o:
under@@
itj@@
kwenta
ikw@@
ked
Jo@@
waph@@
ango
hlo@@
vel@@
eas@@
kwakh@@
niy@@
ative
every
leg@@
"S@@
ever@@
ngekutsi
right
ain
sebent@@
ot
South
dvo
king@@
un
low
agc@@
brought
ound@@
khuluma
ambe
wehl@@
Ngako-ke
ants
took
Ngal@@
Tin@@
lot@@
tur@@
had@@
hlala
Ang@@
away
Lev@@
om
isana
yase@@
bro@@
oma
ngaphandle
kepha
On
labang@@
leb@@
ement
Lord
lish@@
imi
out@@
ibe
sent
ahla
-1@@
say
embikw@@
fin@@
kuts@@
lay@@
tak@@
command@@
requ@@
side
sita
ca@@
Len@@
etulu
sesi@@
Man@@
emp@@
eveni
yesi@@
pur@@
def@@
yakho
ami,
No
sons
sis@@
reg@@
sik@@
sk@@
given
kantsi
ngisho
His
God,
it,
ungelo
chub@@
Ngobe
log@@
called
khokh@@
Lam@@
ngesi@@
ical
ele.
st
entiwa
To
la
akho@@
mas@@
Jeh@@
nit@@
ith@@
ey
!@@
ates
ment@@
kwen@@
says:
ila
ris@@
i;
year@@
dvodza
.[@@
tiy@@
less
ane,
year
loc@@
ang
uye
Your
kusho
sist@@
ako@@
gave
olwa
yakh@@
mat@@
ese
&
lec@@
jo@@
bam@@
/
emandla
hloko
yena
Simakadze.
labo
bring
eme
og@@
ekile
app@@
osh@@
naku@@
o;
kho@@
ink@@
proc@@
funa
ongo
ts.
laph@@
00@@
inv@@
kwesi@@
sakh@@
mis@@
ele,
oni,
nc@@
ound
me.
beautiful@@
em
phil@@
ngetin@@
umph@@
tintfo
hlang@@
.’
ko
adze
beb@@
star@@
ling
ala,
Lem@@
lakh@@
dvuna
ther,
elele
batsi:
cap@@
Now
dzawo
water
bul@@
between
babe
such
ek
never
Is@@
prov@@
esig@@
wakhe
im
fr@@
still
fundza
ke
ulu
self@@
hand
anti@@
asebent@@
saw
leku@@
Jose@@
tain@@
Ad@@
lim@@
eM@@
ead
happ@@
alanga
duc@@
igc@@
e.”
three
ngay@@
proph@@
off
Par@@
wesi@@
ich@@
ship
ach
iah
?”
ol
Davide
need
nine
ah,
dom@@
oli
Uy@@
Loku
an,
:1@@
being
si.
without
oya
lok@@
ulwa
thers
siph@@
yami
cala
alela
abil@@
lig@@
well
aze
ets
ma@@
Nangabe
add@@
ngaph@@
abang@@
Uma
kwa@@
atse
eki
bet@@
bi@@
%
eli,
could
order
-E@@
Lesi@@
ised
Nkulunkulu,
hand@@
beautiful
anan@@
risti
yam@@
pres@@
phak@@
eso
struc@@
baf@@
nekutsi
elani
Why
awa
fola
wele
f
ati,
Ac@@
oba
amp@@
ried
loy@@
children
Kung@@
cur@@
akam@@
char@@
ide
Se@@
na
dzing@@
akha
“N@@
esab@@
kuya
event@@
cho@@
haw@@
ala.
fel@@
ende
fa
ath
ures
int@@
Kus@@
”
ents@@
prom@@
eal@@
wakhuluma
nangabe
tsa
son@@
erc@@
things
kuba
ites
wadzi
day@@
aka-@@
eku
emag@@
uya
giv@@
Afrika
fo
Pr@@
-ke
ngeb@@
ema-Israyeli
angan@@
ages
S
produc@@
until
tell
atim@@
elana
Make
lowo
eN@@
ane.
cor@@
wala
lead@@
ngib@@
inis@@
ited
onkhe.
ashi
inyaka
nan@@
Kun@@
fi@@
sm@@
bey@@
Gre@@
enye
oph@@
asha
Com@@
well@@
ust
ick@@
us,
war@@
fati
s;
oti
Don't
These
20
help
....
wr@@
a.”
..@@
njalo
Kub@@
wet@@
Tim@@
ni@@
med@@
heard
jabul@@
Solom@@
bir@@
o-ke
can@@
ers.
una
tis@@
awun@@
ow
left
On@@
va
ref@@
hlangan@@
des@@
e)
isebent@@
Lel@@
emakh@@
abal@@
ans@@
kuye
lear@@
indzawo
mil@@
acala
law
around
Jerusalem@@
ther.
phi
rece@@
od
“Ng@@
eat
ities
spec@@
sol@@
ens@@
ls
ok
ly@@
kang@@
ja
etjentiswa
naw@@
ree
stud@@
)@@
ent.
look
cer@@
God.
isa.
),
fer@@
an.
tas@@
worl@@
inyenti
naye
gre@@
sy@@
indlela
je
ember
heav@@
o?
David@@
ts,
become
tain
199@@
ten
hom@@
enem@@
ut
owo
akhuluma
Si@@
ahle
hlol@@
ost@@
angal@@
kusukela
Ningizimu
jec@@
respon@@
val@@
provid@@
Le@@
fanele
told
at.
reas@@
ond@@
uso
found
tiny@@
lor@@
're
kulom@@
khosi,
She
anim@@
a!
Christ@@
read@@
nalab@@
fic@@
los@@
work@@
exp@@
"B@@
thr@@
same
njani
ous@@
La@@
dep@@
uku@@
une
uva
"N@@
awut@@
spir@@
embu
asho
world
new@@
Mosi
sebenta
At
18@@
it's
emhlab@@
lokub@@
nyaka
ied
op
After
akho
God@@
ahamba
abanga
ect
ehluk@@
Who
us.
Let
hor@@
city
Li@@
emadvodza
a."
uko
kab@@
One
stand
Babe
done
D
Som@@
Be@@
inisek@@
fir@@
ual
Wena
12@@
tw@@
yab@@
ali@@
Lif@@
ure@@
answ@@
find
Fr@@
ne
utfo
LORD.
number
dle
Moses
ept
dem@@
sup@@
ona,
uj@@
Israel@@
wes@@
akadz@@
awo.
little
tod@@
iket@@
keep
10
Ex@@
trib@@
e...
es:
bus@@
lesing@@
ur
bantf@@
emalanga
ire
Bab@@
um
hon@@
heart
follow@@
act
enteka
most
Let's
onkhe,
isho
kwaku@@
young
row@@
"The
uM@@
iN@@
elek@@
ula,
wonkhe
sonkhe
Ema@@
cwele
Tit@@
hal@@
ti
etikw@@
ount
Gr@@
Kute
Joh@@
May@@
Egyp@@
Jac@@
't
En@@
asked
iki
ps
following
emba
ulek@@
endzaweni
ha.
kanj@@
old@@
lase@@
ahlala
abeni
wami
dev@@
own@@
ors
n't
Mos@@
comes
righ@@
asa
oke
andzel@@
Ev@@
ship@@
kush@@
Wel@@
nec@@
family
angel@@
atsatsa
Is
ifan@@
wase@@
C
ques@@
philo
E
offer@@
Bantfu
ole
div@@
offic@@
nik@@
Beautiful
ngendlela
lis@@
akat@@
ati.
teach@@
kudla
Fil@@
Nat@@
(1)
ukulwane
dar@@
though
ebent@@
ungile
lag@@
org@@
lib@@
ers,
Let@@
nib@@
livi
tib@@
kuphela
ce@@
nikelo
esikhatsi
don@@
phansi
elive
words
Be
Siy@@
har@@
langu@@
utsa
sent@@
ding
ends
a-ke
posi@@
wac@@
iphi
hous@@
ebr@@
gcin@@
angeke
letimb@@
Min@@
ebo
lasi@@
Kuy@@
We@@
nabo
bona
takhe
isa,
head@@
amu
stat@@
whole
You@@
ambi
andzela
dzaba
umsebenti
gra@@
cel@@
pp@@
thir@@
Eli@@
kwaba
cono
ened
wakho
ition
ga@@
gener@@
need@@
awuph@@
fika
Christ
cul@@
ntfwana
anyenti
bakhe
sakhe
famil@@
arr@@
eni@@
q@@
khombisa
Kepha
stand@@
000
From
dvodz@@
commun@@
emac@@
father@@
teb@@
while
ight@@
etinye
ution
hel@@
yay@@
akan@@
Br@@
ay.
Hl@@
tom@@
eliv@@
dea@@
timba
much
Cha
atfu
person
ago
11@@
upon
sing
tabo
umbi
got
website
bles@@
fiel@@
emuk@@
ns
Jer@@
nes@@
tiph@@
onga
know@@
King
down@@
coun@@
abona
tig@@
sho
h,
Take
stor@@
ulekile
ngin@@
umi
ints@@
Nak@@
inhl@@
pas@@
30
ought
uti
ses@@
Bal@@
fil@@
hlitiyo
awus@@
nges@@
anananan@@
taken
isele
engam@@
oku
read
mo
khona.
video
Watsi
Lib@@
ture
ungu
umele
anga,
Re@@
soc@@
ansi
cas@@
re
icin@@
ens
ave
12
are@@
Del@@
ani.
kubo
ion
develop@@
ku-@@
bor@@
both
ision
Israel,
ome
body
line
Bek@@
hlahla
isha
ind
thi
alt@@
und@@
Sp@@
bes@@
born
anga.
LORD@@
gcina
z
ustr@@
uleka
onkh@@
>
lomunye
ngani
kon@@
Nkulunkulu.
lav@@
e-ke
oli@@
k,
cont@@
_@@
Aw@@
ood
tsetf@@
stit@@
food
ious
00
weni.
ka
mess@@
timph@@
tu@@
kwekutsi
Mas@@
ner
part
afan@@
od.
elec@@
Joshu@@
countr@@
etela
imin@@
det@@
sw@@
buy@@
na-@@
a)
andle
beg@@
endvula
ba
childr@@
imp@@
wom@@
kahl@@
woman
ation,
tes@@
ligh@@
ough@@
tinc@@
God's
bem@@
Kwatsi
list@@
your@@
uhla
at's
kwet@@
applic@@
help@@
chang@@
age.
temple
imali
ifun@@
aso
temp@@
alam@@
ulwimi
sibil@@
phela
ews
faka
atfwa
face
ungel@@
labanye
sle@@
enga
ity.
ser@@
labeng@@
dre@@
15@@
selves
ulela
eline
Sab@@
ived
ple@@
mov@@
whom
ativ@@
awu
yes@@
atis@@
cl@@
lona
hlangano
3)
Ning@@
usito
ā@@
ret@@
ms
eyes
resul@@
pi@@
ka@@
home
tfomb@@
pray@@
ize
untf@@
glo@@
Judah
wenu
emad@@
pic@@
why
faith@@
akub@@
ngema@@
itha
Mahl@@
ana,
14@@
sey@@
udz@@
unj@@
letil@@
became
waba
i:
endlini
alo.
Yini
ef
another
Mine
khos@@
umelwane
’
inga
a...
hlan@@
wako
awube
timb@@
tion.
ibon@@
lo,
Website
rip@@
abula
uto
lilanga
Ts@@
ngako
always
etiny@@
nalo@@
vo@@
equ@@
azange
heal@@
Ser@@
complet@@
resp@@
ekako
Far@@
anya
achubeka
asela
mother
cwel@@
ards
Nguyen
fri@@
iNkhosi
living
uli
le:
That
tle
abet@@
tful
ged
endzawo
rul@@
eS@@
dvum@@
Israyeli.
istr@@
kulab@@
ible
rema@@
ngek@@
<li>@@
ayi
row
awo,
akwenta
ke,
eto
ben@@
Nguy@@
every@@
iwa
Simakadz@@
high
nor@@
cent@@
o-@@
leti@@
power
kakhulu.
sha@@
inj@@
unevent@@
now@@
at,
form
(a)
"H@@
along
intfo
upha
e"
lo.
Res@@
seven
earth
iminyaka
ma
vele
neti@@
scho@@
yatsi:
y-@@
Beautif@@
angeni
usha
dvodzakati
*@@
iketa
wadz@@
think
Comm@@
saf@@
ly,
ngemuva
lokung@@
omo
thy
together
aye
lonkhe
liph@@
Inkhosi
last
ere
Afrik@@
Eng@@
dlu
sum@@
For@@
bod@@
gir@@
iver@@
emaph@@
peop@@
lokushiwo
ah.
trans@@
Umuntfu
al.
sion@@
hands
Bar@@
lweku@@
odv@@
ilanga
u;
ula.
ngayo
itwa
ul,
ann@@
Lena
Jehov@@
atsi@@
sam@@
Po@@
fec@@
letim@@
lac@@
yet
olit@@
emab@@
light
ana.
my@@
Nam@@
"You
lot
ugc@@
eyo
akazi
u?
ana@@
nga@@
eva
ly.
beng@@
kweb@@
hold
consid@@
hlal@@
13@@
andleni
writ@@
appro@@
akaniph@@
buso
basi@@
cha@@
Pet@@
inkh@@
s?
ukul@@
abon@@
Me@@
Sit@@
ari
examp@@
knowled@@
ulw@@
sav@@
khomb@@
abeng@@
Israelites
Khristu
imate
Tag@@
leyay@@
ukw@@
condz@@
rep@@
next
iet@@
mal@@
Abra@@
ched
wand@@
awum@@
oub@@
time.
zi
By
known
emas@@
sakho
ul
nguy@@
hla
tet@@
lev@@
ekele
andla,
apha
pris@@
Jerusalem
tat@@
Lit@@
word@@
thing@@
uti@@
lack
tikh@@
kam@@
e.@@
Ma@@
afun@@
evil
Jord@@
four
libito
wis@@
With
fru@@
market@@
Gibhith@@
weni,
17@@
ak
repli@@
ngis@@
30@@
khun@@
says
Wat@@
elel@@
Per@@
ent,
John
uni
leling@@
khulum@@
wife
get@@
cam@@
might
grou@@
ist
'll
ngim@@
ths
ject
a's
say,
win@@
mod@@
andaz@@
Pe@@
aking
ering
lus@@
night
abo,
antfwana
efika
indza
entiwe
os
24@@
akhulu
bahl@@
phila
takho
bah@@
"G@@
Gil@@
care
ort
ungis@@
longu@@
Home
Leng@@
goli@@
pleas@@
etfu,
according
best
daugh@@
Qu@@
letis@@
khulu,
waf@@
pra@@
judg@@
Mag@@
An
full
disc@@
week@@
hop@@
iva
al,
servant
lokw@@
enjam@@
atsi.
grow@@
njengem@@
Ba@@
day.
base@@
different
liy@@
show@@
tsetfosisekelo
andze
oka
yami,
iw@@
everything
African
commit@@
andv@@
“
Ag@@
coming
letit@@
bian
Ngit@@
ekhaya
ality
abes@@
five
lakhe
since
likh@@
ters
lesit@@
wo
lef@@
Baby@@
ness@@
ngil@@
esha
16@@
olobha
death
syst@@
--
ght
pri@@
buil@@
direc@@
nani
Life
outh
Sil@@
town@@
ony@@
!”
Ngem@@
Bhabhul@@
enj@@
pow@@
haza
fanana
or.
etsel@@
sek@@
sicelo
public
ins
ery
educ@@
#@@
offering
hlanu
ening
ni
tam@@
iningwane
zuz@@
Fin@@
leyo
includ@@
aphindze
aka-Israyeli
ince
ifuna
usho
sha
marri@@
ses
play@@
author@@
ke@@
one.
aki
regul@@
u-@@
nandz@@
women
inik@@
deser@@
emanti
ley
sible
aweni
uhle
issu@@
vic@@
uyela
akhona
21@@
Asi@@
sebentisa
Lord@@
imib@@
pa@@
ku
red
imisebenti
vide@@
Nkulunkul@@
etfwe
Liv@@
Lus@@
iphe
ondza
Simphiwe
retur@@
seen
angana
Loko
eli.
sak@@
ies.
awula
lesiv@@
iti
ad,
tfu
yabo
ished
weli@@
life.
neli@@
Afric@@
labal@@
No@@
List@@
standing
anyone
kwakhe
blood
here
emadvodzana
ano@@
people,
money
rofethi
show
polic@@
too
cannot
Kufanele
ounc@@
jus@@
25@@
desig@@
isisa
thing
eleka
Bonkhe
lilo
ota
2.
18
during
thic@@
n,
14
hav@@
free
per
utj@@
ized
umc@@
ndeni
vari@@
dlo
ngetulu
Sig@@
esiv@@
Fun@@
X@@
SA@@
again@@
sure
icela
Aar@@
lish
Inter@@
art@@
ired
bamb@@
head
Beasiswa
15
eko
apho
hluph@@
himself
21
el,
ie
ebh@@
lik@@
yas@@
laba
wana
turn
serve
child
nor
May
sin
ph
discip@@
anis@@
case
ress
ay,
tru@@
Juda
men@@
akaJud@@
within
Mat@@
ment.
partic@@
appear@@
$@@
tice
ubi
appoin@@
information
Jerusalema
Sec@@
ankh@@
uhlelo
alo@@
khulu.
fre@@
self
nase@@
Israel.
ona.
ungo
god@@
Fa@@
present@@
ats
avi
letib@@
ian
umtsetfo
brother@@
Love
obe@@
anisa
atsi,
ilosi
wano
Her@@
engc@@
ves
tor
n.
udv@@
i)
may@@
Es@@
anyela
rev@@
human
leave
yakhe,
nami
entela
ekuph@@
IN@@
nations
ific@@
sab@@
few
indvodza
in.
phan@@
Long@@
aka,
letisi@@
del@@
earch
musi@@
wenta
kim@@
hlob@@
ntfwan@@
she@@
Cal@@
conf@@
emv@@
uw@@
man,
bo
nin@@
ishumi
23@@
ank@@
national
ulala
etjent@@
kuyo
contro@@
pal@@
base
elil@@
Some
front
continu@@
husb@@
etindz@@
shad@@
T
hab@@
Nang@@
ab
Ak@@
anted
11
eting@@
ask@@
chil@@
ade
sang@@
sitf@@
akhosi
rofeth@@
udl@@
ti,
oto
alek@@
s."
za
kantolo
alo,
sandla
Israyeli
you're
ention
press@@
having
"C@@
believe
(b)
efum@@
Ngeku@@
Jerem@@
avel@@
've
der@@
ack
ngam@@
khash@@
dom
hlitiy@@
dvo@@
answer@@
nation@@
ngeli@@
.)
bil@@
Ngubani
didn't
Ngabe
kakhulu,
uleko
laban@@
tsatfu
itsetfo
uyawu@@
inst@@
ined
l,
sul@@
kimi
"What
alel@@
nase
lelis@@
this,
hum@@
sits@@
fal@@
El@@
ics
andvo
endlu
alele
endlela
written
opp@@
ngelilanga
umba
or,
wit@@
streng@@
ank
angani
Live
ise,
buk@@
</li>
]@@
artic@@
oth@@
making
Inc@@
inyane
Neb@@
ukut@@
omu
wag@@
intj@@
(2)
etive
speak
far
call
crow@@
language
turned
y:
ver
port@@
ner@@
i.”
ended
Sel@@
spr@@
Gal@@
ema-Israyeli,
ams
edv@@
Moya
mean@@
hear
hlon@@
naked
blo@@
Ut@@
tase@@
near
deliv@@
letiph@@
prob@@
akadze
umny@@
kulesi@@
flo@@
change
cub@@
sif@@
langa
ad.
futf@@
Are
unc@@
small
eba
shay@@
Sar@@
Because
in,
esi
es;
eting
edz@@
bili
friend@@
Nan@@
priest
akwati
fire@@
imv@@
ached
Mal@@
important
servic@@
itsa
lomo
ost
provide
gold
ama,
pay
uh@@
lung@@
Beng@@
andla.
ure.
Dr@@
khatsini
waw@@
ches
kubh@@
terr@@
ast@@
rest
wakhe,
estab@@
ern@@
Thank
ites,
Ke@@
second
etj@@
leph@@
open
l.
esaba
24
1]
wane,
ones
ighty
Africa
Cha@@
stre@@
Presid@@
dla,
condvo
od,
4)
obo
waya
people.
loph@@
cus@@
longer
port
bantfwana
munye
Ngul@@
bhal@@
Gibhithe
Holy
wif@@
Mak@@
sas@@
bav@@
mem@@
World
typ@@
thula
ire@@
cloth@@
wash@@
solo
Bhayibh@@
Lol@@
kulunkul@@
lokut@@
tic
uphi
ugg@@
siwe
vir@@
fole
Or@@
inher@@
yakho,
mp@@
great@@
ile@@
eka.
Sis@@
Co@@
adi
=
cut
one,
means
other@@
ekelwa
ness.
futfuk@@
believ@@
ence.
en's
phakatsi
iyalo
awe
ebentisa
send
kind@@
siko
fish@@
enu
emtsetf@@
day,
nato
lots
holy
brother
kimi,
sibon@@
ngubani
incenye
post@@
entr@@
nekw@@
prac@@
but@@
y's
Lok@@
andzelako
v
time,
Ash@@
gh@@
I've
ise.
22@@
ext
atfo
try
pass@@
ency
dzinga
sami
wav@@
inika
doc@@
kukhona
eka,
Sa@@
succ@@
times
looking
khundleni
khona,
Khrist@@
ement@@
awuc@@
lokul@@
camp@@
ngaloku@@
members
bew@@
view
Angel@@
kinga
The@@
fall
untfu,
ide@@
Sc@@
Go@@
love.
ending
concer@@
fur@@
sear@@
lar@@
eNingizimu
enter
mang@@
yek@@
meet
0.
Wab@@
a"
ukum@@
again
ngaphansi
usiso
usisiwe
Alm@@
ekho
said@@
eping
akwent@@
dzab@@
on-@@
kingdom
ple
She@@
Manj@@
tenu
declares
ru@@
Philistin@@
Rem@@
khohl@@
aphendvula
chubo
elwane
country
o.”
lena
,'
ess.
bar@@
coven@@
atiwa
lent@@
Di@@
Emp@@
P
jeng@@
ahamb@@
gif@@
cros@@
What's
ulumende
yakhe.
ekwa
whether
Sawula
walo
Levi
ebus@@
manag@@
muntfu
khonta
V
mother@@
Sat@@
Na@@
enough
isiwe
afra@@
khosi.
this@@
kuto
Nging@@
Tel@@
ener@@
book
fundvo
really
emav@@
large
son,
sihl@@
ouse
spe@@
Pharao@@
emsebent@@
ekus@@
eth
Besi@@
eya
oni.
Eph@@
ition@@
uch@@
Abraham@@
M
Hlengiwe
wid@@
stood
gomo
hand,
kug@@
ime
ambo
atsatfu
ense
olobheni
real@@
bafundzi
lobh@@
visi@@
nalowo
16
Mor@@
uyise
esandleni
lo
descendants
itselo
whose
eceleni
ugh@@
afundz@@
luc@@
iver
fire
abo.
thre@@
So@@
Yeb@@
kubon@@
daughter
Spirit
iwo
inikelo
letinye
support
aya,
kulam@@
saka@@
bong@@
prof@@
nawo
Ne@@
exc@@
ngeke
site.
based
zinga
ouse@@
Kuc@@
emavi
Jan@@
follow
net
B
etimph@@
der
Ple@@
idl@@
righteous@@
Bay@@
umbula
mountain@@
ugu
ros@@
nawe
De@@
pun@@
ways
mag@@
effec@@
nako
doing
fore,
benef@@
nothing
bea@@
mid@@
life@@
dzala
irc@@
wa-@@
ote
plan@@
ili.
health
labam@@
yalo
lamabili
njalo,
ili,
Egypt
ing:
ebenta
cwele,
advodza
kind
indlu
ural
titf@@
Indi@@
22
Sing@@
oper@@
"This
emhlabeni
etfo
business
ngent@@
ngeph@@
Njengobe
kuye:
Isa@@
Phil@@
lutfo
lub@@
hlaz@@
25
lived
Buk@@
Emal@@
righte@@
ar.
yase
save
cover@@
destroy@@
drink
jela
better
book@@
akaz@@
I'll
kubhal@@
ives
section
afuna
Leb@@
priests
already
pec@@
tful@@
aka.
wil@@
ither
using
lose
au@@
listen
ask
AN@@
er's
doesn't
fail@@
ack@@
govern@@
angatsi
idz@@
Rep@@
ching
amil@@
nguM@@
ngemnyaka
kwakho
wane.
destro@@
rop@@
oo@@
talk
Saul
13
elweni
utawu@@
1.@@
will@@
ngc@@
ening@@
dzingo
ments
avail@@
akaJuda
leav@@
government
proper@@
Mon@@
iah,
loye@@
le-@@
lelo
ech@@
khe
roc@@
Hez@@
is,
sacrific@@
makes
ots
Wor@@
lakho
ombisa
lak@@
siwa
feel
up.
ongs
Jehova
nje,
afundzi
peri@@
ems
National
wond@@
lutf@@
ouldn't
imphilo
in-@@
embikwa@@
ines
yema@@
killed
enti.
den@@
ided
Lord,
assemb@@
kulo
ate.
eve
loko,
half
ob
lay
c)
Father
out.
someone
yang@@
activ@@
state
akhe,
kwati
atsim@@
L
ukuts@@
letehluk@@
ar,
built
ge@@
N
desi@@
kucala
return
Dis@@
ko@@
ed;
zin@@
experi@@
wati@@
lesin@@
emny@@
tsetfo@@
sindz@@
though@@
labas@@
uhlungu
nil@@
libh@@
u.”
ety
icked
thempeli
nguye
elo,
(1@@
yeli@@
ive,
jud@@
17
employ@@
ehlul@@
Vi@@
batsi
Kuhl@@
elini
ess,
lion
ord
alleng@@
etfu.
indl@@
joy
present
speak@@
rics
elelwa
ako:
ali,
tindlela
you."
chi@@
Hel@@
pul@@
Beth@@
idolobha
said.
Davide,
Kuv@@
sex@@
khic@@
uck
Kwa@@
hulumende
kings
beasiswa
Kuph@@
main@@
viol@@
iting
burn@@
:3@@
person@@
ngoba
began
emehlo
eful
overeign
libe
faith
am,
emehl@@
build
plain@@
Ben@@
uth@@
Sin@@
Wil@@
agama
ump@@
ed:
akhe.
watf@@
saying,
bak@@
years.
offici@@
Therefore
nigh@@
aniz@@
Ngel@@
kubona
weny@@
including
suffer@@
laSimakadze
ity,
ani?
elekile
hundred
bob@@
ements
kuwo
neigh@@
wandle
kuwe
prepar@@
"L@@
unya
kanjani
air@@
aka-Israyeli,
yeM@@
high@@
S.
hist@@
lenc@@
ter.
dle@@
tesi@@
ngekulandzela
wo@@
member
laim@@
et.
sity
ulu,
mayelana
ej@@
Level
t:
Jerusalema,
ease
sacr@@
swor@@
kill
elene
Bas@@
indzi
kuSimakadze
sat@@
aguc@@
labat@@
Chris@@
chur@@
atjelo
filled
akul@@
funy@@
looked
nom@@
ingo
Ger@@
usita
bow@@
Web@@
However,
allow@@
28@@
atselo
1.
nyalo
ano
cane
fana
ethemp@@
fect
ness,
Nome
sla@@
Jonath@@
sou@@
kwetin@@
Lis@@
s)
something
Where
utsandvo
khandl@@
mak@@
letat@@
"Ng@@
anks
oko,
khaya
part@@
tfutf@@
indzaba
omnak@@
sci@@
;@@
die
odi
bi
Paul
asham@@
ezulw@@
ti.
0,
yi@@
sekutsi
awung@@
lenkhulu
Konkhe
loko.
?'
anger
i."
stituti@@
Cap@@
ifundz@@
protec@@
meas@@
Jakobe
Sikh@@
kuphila
etwa
Des@@
fear
lolu@@
Emv@@
50
onom@@
old,
anything
wini
Ham@@
Bel@@
list
Ase
bl@@
oyisa
room@@
up,
uka,
emat@@
thousand
il.
toward
pay@@
ohl@@
ro
Med@@
yetin@@
heaven
acondzana
point
é@@
wente
eman@@
vu
Of
hhayi
23
kwam@@
ingi
with@@
trad@@
mind@@
ubo
shangatsi
els
akazange
nalam@@
!!!
there@@
lelit@@
yini?
deter@@
Vide@@
tion,
icala
Beku@@
swe@@
Sal@@
fore
Bat@@
inhlitiyo
umay@@
ital
sikati
inf@@
labeb@@
ngitsi
njengal@@
sase@@
service
yourself
amu,
aha
phendvula
iseni
awuv@@
jik@@
angel
bakho
ndzaw@@
o."
Acc@@
kona
Velonkhe
elo.
Heb@@
asik@@
local
etsi
el.
Cour@@
!!
utsatsa
ham@@
ublic
atsini
contin@@
numb@@
owever,
iness
ough
Q@@
ich
ilo@@
ekelo
....@@
Vel@@
oul@@
uring
oth
tow@@
on't
ulum@@
Ther@@
imu
??@@
nd@@
som@@
abili
beli@@
enca
U
igh
Njeng@@
+
ray@@
Jak@@
↑
ording
Isray@@
epha
There@@
Pa@@
shi@@
ready
dif@@
pries@@
poin@@
2)
overn@@
swa
ew
look@@
differ@@
>@@
suc@@
cause
ñ@@
ign
Pre@@
led@@
toge@@
ond
ining@@
themp@@
ā
<@@
ould
H
prot@@
é
=@@
%@@
vid@@
hhhh@@
sac@@
Spir@@
Bea@@
ako-ke
R
inform@@
memb@@
yp@@
moun@@
Phar@@
suf@@
G
Y
F
Af@@
ndz@@
K
â@@
declar@@
desc@@
@@@
›
izimu
ink
lud@@
kakhul@@
did@@
thor@@
&@@
j
·
ibhi@@
uch
It@@
ṭ@@
thous@@
X
W
olobh@@
ould@@
sisekelo
ou
LO@@
elop@@
siswa
augh@@
€@@
import@@
ṃ
eign
achub@@
ngekul@@
Israyeli,
eak
ith
~
ubani
+@@
{@@
dleni
ational
Jon@@
whe@@
kil@@
</@@
odvwa
hun@@
I'@@
b)
rist@@
abhul@@
descend@@
akati
}
shiwo
à
¢
ll
hat
→
J
←
acondz@@
dren
Worl@@
lic
Gibhi@@
oug@@
Hol@@
#
á@@
~@@
ayibh@@
í@@
ever,
ü@@
°@@
cov@@
^
eca@@
Eg@@
’@@
utif@@
hus@@
fron@@
phiwe
🙂
ntf@@
shu@@
Jerusal@@
–
Dav@@
beasi@@
@
|
ī@@
ecause
unti@@
ū@@
kno@@
š@@
ween
[
unkul@@
ä@@
ē
^@@
ö@@
ç@@
č@@
Z
(
ó@@
–@@
<
о@@
¿@@
£@@
▪
а@@
•@@
и@@
ô@@
│
ṅ@@
ṣ@@
”@@
nex@@
}@@
q
ʻ@@
ō@@
ɱ
е@@
è@@
ˈ@@
some@@
Hleng@@
Q
ー@@
ı@@
â
ḥ
someth@@
、
usal@@
л@@
ao@@
{
ê@@
с@@
ō
ṟ@@
ng
ú@@
α@@
€
′@@
$
Â@@
Isra@@
р@@
ø@@
ṃ@@
ś@@
ה@@
kant@@
н@@
©
т@@
⁄@@
¡@@
ś
esn't
ṇ@@
י@@
ŋ@@
♬
﻿
ו@@
ž@@
á
hlit@@
ī
😂
ë@@
ŋ
ル@@
б@@
к@@
Â
ş@@
É@@
š
😂@@
ン@@
ρ@@
î@@
—@@
。
ã@@
Afr@@
ṉ@@
●
″@@
beautif@@
·@@
§
д@@
ː@@
rofe@@
─@@
・@@
া@@
ο@@
▼
ṯ@@
ə@@
у@@
τ@@
†
×
¦
estro@@
в@@
❤@@
з@@
❤
̱
ა@@
ה
ḻ@@
û@@
อ@@
า@@
😀
п@@
̱@@
ا@@
γ@@
😉
μ@@
м@@
📅
ô
à@@
ل@@
¶
ン
α
🎬
ω@@
♫
ē@@
ร@@
ğ@@
️
├@@
ʹ@@
ʹ
dred
Ü@@
ί@@
ν@@
ḍ@@
ɓ@@
ा@@
í
а
ʼ@@
æ@@
😍
°
シ@@
Ç@@
ć@@
フ@@
ɑ@@
ḥ@@
イ@@
è
ε@@
─
リ@@
ï@@
Philis@@
С@@
υ@@
þ@@
ი@@
เ@@
σ@@
ι@@
ス@@
♡
®
ņ@@
️@@
ア@@
ッ@@
ä
г@@
꞉@@
ɱ@@
ื@@
、@@
テ@@
🔥@@
่@@
ū
﻿@@
ɛ@@
נ@@
û
ж@@
ṛ@@
А@@
−
ي@@
η@@
ı
İ@@
ь@@
ς
я@@
م@@
ý
و@@
ク@@
¢@@
ա@@
「@@
Á@@
П@@
♥
ë
」
ṁ
ィ@@
ジ@@
Ú@@
̈
—
я
rom
🤣@@
β@@
🤣
ნ@@
ر@@
ç
Š@@
ḳ@@
ų@@
õ@@
|@@
↔
्@@
И@@
ช@@
λ@@
ি@@
য@@
χ@@
ì@@
œ@@
オ@@
ע@@
●@@
ń@@
×@@
ή@@
ス
ব@@
্@@
ï
ภ@@
κ@@
ñ
✄
ბ@@
ę@@
и
ɪ@@
ý@@
レ@@
ã
พ@@
ล@@
ɾ@@
ü
の@@
ন@@
ʺ
θ@@
ი
ホ@@
ト@@
ė@@
✔
プ@@
ョ@@
ミ@@
【@@
😆
Simaka@@
ษ@@
】@@
ਨ
�@@
ਉ@@
้@@
ラ@@
К@@
ਰ@@
რ@@
ਾ@@
ਚ@@
サ@@
ˌ@@
Σ@@
Ν@@
Ε@@
δ@@
ʊ@@
ャ@@
♪
♦
ʌ@@
ṱ@@
Φ@@
🎵
′
ت@@
Р@@
😁
Π@@
ァ@@
🔥
ナ@@
ว@@
מ@@
φ@@
έ@@
ḽ@@
£
§@@
е
ე@@
ł@@
ع@@
ส@@
》
น@@
ɗ@@
ド@@
ক@@
《@@
Ä
ի@@
ி@@
\
भ@@
ม@@
⇒
‐@@
ù
́@@
ð@@
ч@@
ζ@@
م
‘
▶
‹
∙
ր
ʒ@@
М@@
đ@@
Б@@
‐
О@@
ʃ@@
Л@@
ี@@
ָ@@
र@@
¿
ب@@
о
Δ@@
ר@@
ল@@
א@@
ᐅ
꞉
č
ロ@@
ß@@
✨
Č@@
ღ
ง@@
➢
À
ó
н
ლ@@
ズ@@
LOR@@
ל@@
ー
ḷ@@
ز@@
ত@@
Ι@@
Μ@@
Η@@
ザ@@
ю@@
̄
ح@@
ת
Т@@
ビ@@
ك@@
়@@
ュ@@
👌
ż@@
்@@
ב@@
ά@@
ベ@@
★
ỷ
タ@@
๓@@
त@@
ज@@
ش@@
✧
Å@@
マ@@
ニ@@
ּ@@
ि@@
Ã@@
მ@@
👍
ボ@@
¡
ř@@
ब@@
ข@@
😁@@
ভ@@
ง
প@@
Ä@@
Ş@@
і@@
Ā@@
י
ম
å@@
│@@
ḓ@@
\@@
チ@@
■
💃@@
😅
ṛ
د@@
й
Ò@@
თ@@
ą@@
↓
エ@@
ο
া
ő@@
न@@
》@@
হ@@
ย@@
ɒ@@
ج@@
ा
ŵ@@
ש@@
ხ@@
ి@@
カ@@
ც@@
జ@@
ケ@@
下@@
স@@
➣
ր@@
ষ@@
ู@@
‟@@
ո@@
Ž@@
ω
Í@@
🙏
💯
د
👍@@
ố
ר
ד@@
Α@@
☆
ח@@
ド
⟩
🎀
ル
आ@@
ن@@
כ@@
й@@
Κ@@
ʺ@@
Þ@@
с
👌@@
े@@
η
Ś@@
日@@
์
ে
ò
♥@@
±
ć
ž
س@@
🇿@@
ą
श@@
コ@@
โ@@
დ@@
😭
✅
้
ड@@
π@@
🙌@@
モ@@
ɡ@@
ш@@
ы@@
ワ@@
文@@
ό@@
‣
🏃@@
‍@@
☆@@
к
♂@@
🤐@@
Đ@@
バ@@
ـ@@
ύ@@
。@@
ւ@@
ソ@@
ض@@
ş
い@@
ზ@@
Ø@@
士@@
д
ß
キ@@
ォ@@
ռ@@
պ@@
ন
ե@@
Ø
▲
©@@
ウ@@
◼
უ@@
ป@@
வ@@
ọ@@
ջ
ブ@@
・
합@@
🤔
ג@@
😢
ʔ
ত
😢@@
ļ@@
치
‹@@
→@@
จ@@
권@@
✭
인@@
💕@@
北
ų
ő
ط@@
뉴@@
😛
✍@@
없@@
ț@@
✿
었@@
☺@@
ź
È
😕
계@@
😊
유@@
지
관@@
가@@
후@@
ồ@@
퇴@@
다@@
ẕ@@
►
Ṱ@@
ė
օ@@
연@@
ι
ż
👇
☐
ƈ
💜
Э@@
Е@@
₺
Ū@@
ĥ@@
Ṅ@@
👉
し@@
Ë@@
🌟
如@@
▢@@
🤤
い
Α
💫@@
ト
ీ@@
̃@@
‡@@
Ì@@
🔆
র
మ@@
―@@
þ
韩@@
た@@
◦@@
人@@
ల@@
్
🏻
🔍
👉@@
®@@
ј@@
は
통@@
๒@@
스
령
ব
⋙
は@@
😒@@
⚑
দ@@
в
ò@@
대@@
É
나
ж
ʎ@@
와@@
츠@@
🇬@@
ღ@@
💗
보@@
▷
🙌
ค@@
ต@@
ě
🏆
ς@@
◕@@
ু@@
È@@
上@@
撒@@
ɜ@@
म
ु@@
︠@@
า
︡@@
🔔
ø
म@@
ی@@
ห@@
ิ@@
ú
ა
―
ო@@
ĕ@@
ن
约@@
ـ
¬@@
ভ
ர@@
்
ქ@@
−@@
።
✌
🇦
ق@@
স
э@@
Õ@@
ไ@@
У@@
ֹ@@
ম@@
এ@@
ს@@
あ@@
м
▽@@
¶@@
़@@
इ@@
ं@@
ゴ@@
կ
ष@@
ग@@
̊
例@@
く@@
聞@@
り@@
ग
ὐ@@
გ@@
ಗ@@
を@@
音@@
қ@@
発@@
ỳ@@
☾
ल@@
ս@@
帳@@
Ο
ペ@@
ь
第@@
Ó@@
ك
¦@@
ơ@@
本@@
​@@
ÿ
щ@@
আ@@
ি
加
ʉ
💛
►@@
追@@
に@@
т
¬
ẽ@@
க@@
ט@@
ö
Ο@@
ъ@@
Æ@@
ă@@
ण@@
ְ@@
ी@@
ム@@
Н@@
צ@@
ப@@
Τ@@
र
ள@@
申@@
ゲ@@
ல@@
ת@@
ք@@
🚀
ḏ
դ@@
ա
➜
ら@@
ه
ム
ф@@
℞@@
బ@@
英@@
代@@
『@@
ด@@
li>@@
朵@@
￼
Ō@@
य@@
Ф@@
Ö@@
ù@@
ы
∼
น
ц@@
ั@@
😅@@
セ@@
ா@@
द@@
ং@@
ف@@
ή
த@@
⇨
🤪
▲@@
ŝ@@
መ@@
❆
📚@@
☁@@
🙆
ፕ@@
👊@@
ላ@@
포
ĩ@@
🎩
ን@@
왓
✋@@
🔹@@
ሸ@@
🤜@@
ി@@
വ@@
✘
ȏ@@
ţ@@
ḱ@@
ǰ@@
❓@@
ͻ@@
😆@@
👤
ት
ተ@@
ራ@@
̯@@
🥰
♯@@
😀@@
🔴
ফ@@
😭@@
😦
ˌ
๔@@
๕@@
❣
☎@@
➡@@
🌜
✎
ּ
℗@@
Û
ก@@
ู
🖤
∴
ল
💦
`
Ḳ@@
🌶
খ
💕
ם@@
🇧
♱
🔊
👓
✧@@
💖
ɲ@@
🎉
■@@
🇸@@
،
ǒ
ᐉ
ǐ
😘
ȝ@@
ở@@
🐶
🙁
অ@@
💋
☼
ર@@
̥@@
২
ť
મ
ă
🎶@@
১@@
০@@
২@@
💯@@
😎@@
○@@
♡@@
ṿ@@
ů@@
չ@@
શ@@
ď@@
ು
▬
⟡@@
😞
✿@@
🌸
ꞌ
👑
💃
👑@@
💎
✦
̼@@
̈@@
♇
♅
😄
💝@@
๑@@
📘
💥
⋅
ạ@@
⚡
ũ@@
🏼
👸@@
ก
፤
↓@@
❀
🦋
Ÿ@@
♌@@
␓
💎@@
స@@
ಲ@@
ె@@
🌻
🌻@@
ṭ
歌
😝
🔊@@
›@@
̲@@
ʌ
Ń@@
🎧
↔@@
💍
👽
√
尼@@
📌
💀
℗
న@@
ˆ@@
💙@@
🤟
😮
烈@@
̬@@
و
̬
火@@
ģ@@
Β@@
😜
😝@@
😠
थ@@
➤@@
ʒ
ả@@
ố@@
ấ@@
ě@@
😯
ṉ
💰
☟
ʉ@@
õ
☀
ə
Ł
…
ל
ƚ@@
✡
Ï
み@@
ು@@
ಜ@@
😡
÷@@
☽
☾@@
🚩
Ț@@
ɦ@@
ಳ
ಂ@@
∼@@
ಮ@@
ˈ
🎈
ు
ు@@
⇑@@
💏
ì
ן
א
자@@
베@@
스@@
♪@@
̇
로@@
į@@
ए@@
🌏
Ġ@@
Ă@@
🖤@@
ώ@@
🙄@@
ș@@
ṟ
伊@@
丽@@
莎@@
🙄
白@@
🥀@@
إ@@
ث@@
📕
엘@@
리@@
ɛ
ว
そ@@
‿@@
비@@
（@@
জ@@
ख@@
द
۵
Օ@@
র@@
ে@@
Έ@@
ュ
画
나@@
款@@
付@@
ÿ@@
否@@
年@@
是@@
定@@
决@@
動@@
Υ@@
ぜ
ಬ@@
ʂ
▼@@
ธ@@
ะ@@
◊
∘
ो
फ@@
у
ಡ@@
ギ@@
ो@@
ゅ@@
ち@@
が@@
め@@
ǫ@@
ह
ゼ@@
Մ@@
য
か@@
他@@
ስ
։
उ@@
Ş
∗
ĺ
医
就@@
」@@
民@@
₹@@
Ê
◇
べ@@
׳@@
な
ه@@
ة
 13@@
г
∞
ξ
փ@@
る@@
你
ल
ू@@
页
章
子
筷@@
ậ@@
۱@@
ῶ@@
न
ィ
⟶
チ
‖
ძ@@
ک@@
※
Ξ@@
Ï@@
ɣ@@
ɕ@@
ヨ@@
ダ@@
ヴ@@
¥@@
Ī@@
太@@
が
अ@@
演
講@@
ও@@
জ
グ@@
タ
示@@
展@@
ந@@
ீ@@
۳@@
ν
­@@
ア
л
す@@
ی
ை
פ@@
ェ@@
տ@@
ォ
Ո@@
ミ
说@@
明@@
Ű@@
ק@@
Ь
刺
ツ
玻@@
ʱ@@
瑰@@
ᵐ@@
皆@@
Σ
有@@
Ρ@@
ψ
ө@@
р
Г@@
ณ
 and
イ
ザ
х@@
ვ@@
✠
リ
全
ヤ
パ@@
À@@
چ@@
प@@
ी
τ
क@@
ब
ف
ழ@@
ى
ὴ
Ė@@
ֲ@@
メ@@
∞@@
ű@@
王@@
ჯ@@
⟨@@
っ@@
ゃ@@
ɐ
ओ
त
ェ
⊥@@
半@@
蔵@@
門
五@@
ز
ガ@@
დ
们@@
😍@@
道
权@@
ఓ@@
క@@
ే
💚
🍫
惨@@
无@@
🚀@@
竟@@
డ@@
📍
不@@
非@@
ň@@
洲@@
难@@
民
国@@
之@@
北@@
Ļ@@
朝@@
➔
株@@
🥇
🇪
式@@
ಅ@@
ನ@@
ರ@@
್@@
ಹ
💙
デ@@
会@@
社@@
Ω@@
🎛
ఖ@@
్@@
ం
ẖ@@
▾
眼
◯
宣@@
ů
̌
🌩
』
₪@@
😈
😉@@
🐻@@
🐻
ȟ@@
✂
î
☺
Á
ஐ
ஐ@@
̇@@
ʻ
👏
ʼ
➟
ɨ@@
♦@@
ো@@
ს
ট
💌
鲜@@
ǎ
报@@
�
网
⋆
🤩@@
წ@@
Ż@@
ნ
📷
바
파@@
리
🥇@@
ჭ@@
✍
ỹ
๖@@
🤐
😎
ṇ
ன@@
ு@@
Ђ@@
林@@
前@@
ǀ@@
ᵑ@@
̄@@
Î@@
徒@@
ெ@@
Վ@@
Բ@@
ի
ม
Ζ@@
ק
ラ
Ս@@
خ@@
த
ி
⌕
责@@
誓@@
忠@@
实@@
履@@
行@@
自@@
己@@
的@@
职@@
ヘ@@
இ@@
Ó
Д@@
○
դ
ն@@
Կ@@
ն
Ե@@
ใ@@
ا
Ά@@
步@@
酒@@
۵@@
预@@
备@@
≤@@
件
😱
語
库@@
贝@@
店
进@@
Θ@@
🇪@@
🇬
❦
🏾
🕊
Ô
🚇
˒
こ
け@@
ق
ả
】
Ψ@@
 G@@
व@@
च@@
य
 H@@
ɠ@@
غ@@
ữ@@
ễ@@
λ
ポ@@
ノ
Å
ן@@
ছ@@
ז@@
利@@
ب
